{
  "version": "1.0",
  "truncation": null,
  "padding": null,
  "added_tokens": [
    {
      "id": 0,
      "content": "<|im_start|>",
      "single_word": false,
      "lstrip": false,
      "rstrip": false,
      "normalized": false,
      "special": true
    },
    {
      "id": 1,
      "content": "<|im_end|>",
      "single_word": false,
      "lstrip": false,
      "rstrip": false,
      "normalized": false,
      "special": true
    },
    {
      "id": 2,
      "content": "<|endoftext|>",
      "single_word": false,
      "lstrip": false,
      "rstrip": false,
      "normalized": false,
      "special": true
    },
    {
      "id": 3,
      "content": "<unused0>",
      "single_word": false,
      "lstrip": false,
      "rstrip": false,
      "normalized": false,
      "special": true
    },
    {
      "id": 4,
      "content": "<unused1>",
      "single_word": false,
      "lstrip": false,
      "rstrip": false,
      "normalized": false,
      "special": true
    },
    {
      "id": 5,
      "content": "<unused2>",
      "single_word": false,
      "lstrip": false,
      "rstrip": false,
      "normalized": false,
      "special": true
    },
    {
      "id": 6,
      "content": "<unused3>",
      "single_word": false,
      "lstrip": false,
      "rstrip": false,
      "normalized": false,
      "special": true
    },
    {
      "id": 7,
      "content": "<unused4>",
      "single_word": false,
      "lstrip": false,
      "rstrip": false,
      "normalized": false,
      "special": true
    },
    {
      "id": 8,
      "content": "<unused5>",
      "single_word": false,
      "lstrip": false,
      "rstrip": false,
      "normalized": false,
      "special": true
    },
    {
      "id": 9,
      "content": "<unused6>",
      "single_word": false,
      "lstrip": false,
      "rstrip": false,
      "normalized": false,
      "special": true
    },
    {
      "id": 10,
      "content": "<unused7>",
      "single_word": false,
      "lstrip": false,
      "rstrip": false,
      "normalized": false,
      "special": true
    },
    {
      "id": 11,
      "content": "<unused8>",
      "single_word": false,
      "lstrip": false,
      "rstrip": false,
      "normalized": false,
      "special": true
    },
    {
      "id": 12,
      "content": "<unused9>",
      "single_word": false,
      "lstrip": false,
      "rstrip": false,
      "normalized": false,
      "special": true
    },
    {
      "id": 13,
      "content": "  ",
      "single_word": false,
      "lstrip": false,
      "rstrip": false,
      "normalized": false,
      "special": true
    },
    {
      "id": 14,
      "content": "   ",
      "single_word": false,
      "lstrip": false,
      "rstrip": false,
      "normalized": false,
      "special": true
    },
    {
      "id": 15,
      "content": "    ",
      "single_word": false,
      "lstrip": false,
      "rstrip": false,
      "normalized": false,
      "special": true
    },
    {
      "id": 16,
      "content": "     ",
      "single_word": false,
      "lstrip": false,
      "rstrip": false,
      "normalized": false,
      "special": true
    },
    {
      "id": 17,
      "content": "      ",
      "single_word": false,
      "lstrip": false,
      "rstrip": false,
      "normalized": false,
      "special": true
    },
    {
      "id": 18,
      "content": "       ",
      "single_word": false,
      "lstrip": false,
      "rstrip": false,
      "normalized": false,
      "special": true
    },
    {
      "id": 19,
      "content": "        ",
      "single_word": false,
      "lstrip": false,
      "rstrip": false,
      "normalized": false,
      "special": true
    },
    {
      "id": 20,
      "content": "         ",
      "single_word": false,
      "lstrip": false,
      "rstrip": false,
      "normalized": false,
      "special": true
    },
    {
      "id": 21,
      "content": "          ",
      "single_word": false,
      "lstrip": false,
      "rstrip": false,
      "normalized": false,
      "special": true
    },
    {
      "id": 22,
      "content": "           ",
      "single_word": false,
      "lstrip": false,
      "rstrip": false,
      "normalized": false,
      "special": true
    },
    {
      "id": 23,
      "content": "            ",
      "single_word": false,
      "lstrip": false,
      "rstrip": false,
      "normalized": false,
      "special": true
    },
    {
      "id": 24,
      "content": "             ",
      "single_word": false,
      "lstrip": false,
      "rstrip": false,
      "normalized": false,
      "special": true
    },
    {
      "id": 25,
      "content": "              ",
      "single_word": false,
      "lstrip": false,
      "rstrip": false,
      "normalized": false,
      "special": true
    },
    {
      "id": 26,
      "content": "               ",
      "single_word": false,
      "lstrip": false,
      "rstrip": false,
      "normalized": false,
      "special": true
    },
    {
      "id": 27,
      "content": "                ",
      "single_word": false,
      "lstrip": false,
      "rstrip": false,
      "normalized": false,
      "special": true
    },
    {
      "id": 28,
      "content": "                 ",
      "single_word": false,
      "lstrip": false,
      "rstrip": false,
      "normalized": false,
      "special": true
    },
    {
      "id": 29,
      "content": "                  ",
      "single_word": false,
      "lstrip": false,
      "rstrip": false,
      "normalized": false,
      "special": true
    },
    {
      "id": 30,
      "content": "                   ",
      "single_word": false,
      "lstrip": false,
      "rstrip": false,
      "normalized": false,
      "special": true
    },
    {
      "id": 31,
      "content": "                    ",
      "single_word": false,
      "lstrip": false,
      "rstrip": false,
      "normalized": false,
      "special": true
    },
    {
      "id": 32,
      "content": "                     ",
      "single_word": false,
      "lstrip": false,
      "rstrip": false,
      "normalized": false,
      "special": true
    },
    {
      "id": 33,
      "content": "                      ",
      "single_word": false,
      "lstrip": false,
      "rstrip": false,
      "normalized": false,
      "special": true
    },
    {
      "id": 34,
      "content": "                       ",
      "single_word": false,
      "lstrip": false,
      "rstrip": false,
      "normalized": false,
      "special": true
    },
    {
      "id": 35,
      "content": "                        ",
      "single_word": false,
      "lstrip": false,
      "rstrip": false,
      "normalized": false,
      "special": true
    }
  ],
  "normalizer": null,
  "pre_tokenizer": {
    "type": "ByteLevel",
    "add_prefix_space": false,
    "trim_offsets": true,
    "use_regex": true
  },
  "post_processor": {
    "type": "ByteLevel",
    "add_prefix_space": true,
    "trim_offsets": false,
    "use_regex": true
  },
  "decoder": {
    "type": "ByteLevel",
    "add_prefix_space": true,
    "trim_offsets": true,
    "use_regex": true
  },
  "model": {
    "type": "BPE",
    "dropout": null,
    "unk_token": null,
    "continuing_subword_prefix": null,
    "end_of_word_suffix": null,
    "fuse_unk": false,
    "byte_fallback": false,
    "vocab": {
      "<|im_start|>": 0,
      "<|im_end|>": 1,
      "<|endoftext|>": 2,
      "<unused0>": 3,
      "<unused1>": 4,
      "<unused2>": 5,
      "<unused3>": 6,
      "<unused4>": 7,
      "<unused5>": 8,
      "<unused6>": 9,
      "<unused7>": 10,
      "<unused8>": 11,
      "<unused9>": 12,
      "  ": 13,
      "   ": 14,
      "    ": 15,
      "     ": 16,
      "      ": 17,
      "       ": 18,
      "        ": 19,
      "         ": 20,
      "          ": 21,
      "           ": 22,
      "            ": 23,
      "             ": 24,
      "              ": 25,
      "               ": 26,
      "                ": 27,
      "                 ": 28,
      "                  ": 29,
      "                   ": 30,
      "                    ": 31,
      "                     ": 32,
      "                      ": 33,
      "                       ": 34,
      "                        ": 35,
      "!": 36,
      "\"": 37,
      "#": 38,
      "$": 39,
      "%": 40,
      "&": 41,
      "'": 42,
      "(": 43,
      ")": 44,
      "*": 45,
      "+": 46,
      ",": 47,
      "-": 48,
      ".": 49,
      "/": 50,
      "0": 51,
      "1": 52,
      "2": 53,
      "3": 54,
      "4": 55,
      "5": 56,
      "6": 57,
      "7": 58,
      "8": 59,
      "9": 60,
      ":": 61,
      ";": 62,
      "<": 63,
      "=": 64,
      ">": 65,
      "?": 66,
      "@": 67,
      "A": 68,
      "B": 69,
      "C": 70,
      "D": 71,
      "E": 72,
      "F": 73,
      "G": 74,
      "H": 75,
      "I": 76,
      "J": 77,
      "K": 78,
      "L": 79,
      "M": 80,
      "N": 81,
      "O": 82,
      "P": 83,
      "Q": 84,
      "R": 85,
      "S": 86,
      "T": 87,
      "U": 88,
      "V": 89,
      "W": 90,
      "X": 91,
      "Y": 92,
      "Z": 93,
      "[": 94,
      "\\": 95,
      "]": 96,
      "^": 97,
      "_": 98,
      "`": 99,
      "a": 100,
      "b": 101,
      "c": 102,
      "d": 103,
      "e": 104,
      "f": 105,
      "g": 106,
      "h": 107,
      "i": 108,
      "j": 109,
      "k": 110,
      "l": 111,
      "m": 112,
      "n": 113,
      "o": 114,
      "p": 115,
      "q": 116,
      "r": 117,
      "s": 118,
      "t": 119,
      "u": 120,
      "v": 121,
      "w": 122,
      "x": 123,
      "y": 124,
      "z": 125,
      "{": 126,
      "|": 127,
      "}": 128,
      "~": 129,
      "¡": 130,
      "¢": 131,
      "£": 132,
      "¤": 133,
      "¥": 134,
      "¦": 135,
      "§": 136,
      "¨": 137,
      "©": 138,
      "ª": 139,
      "«": 140,
      "¬": 141,
      "®": 142,
      "¯": 143,
      "°": 144,
      "±": 145,
      "²": 146,
      "³": 147,
      "´": 148,
      "µ": 149,
      "¶": 150,
      "·": 151,
      "¸": 152,
      "¹": 153,
      "º": 154,
      "»": 155,
      "¼": 156,
      "½": 157,
      "¾": 158,
      "¿": 159,
      "À": 160,
      "Á": 161,
      "Â": 162,
      "Ã": 163,
      "Ä": 164,
      "Å": 165,
      "Æ": 166,
      "Ç": 167,
      "È": 168,
      "É": 169,
      "Ê": 170,
      "Ë": 171,
      "Ì": 172,
      "Í": 173,
      "Î": 174,
      "Ï": 175,
      "Ð": 176,
      "Ñ": 177,
      "Ò": 178,
      "Ó": 179,
      "Ô": 180,
      "Õ": 181,
      "Ö": 182,
      "×": 183,
      "Ø": 184,
      "Ù": 185,
      "Ú": 186,
      "Û": 187,
      "Ü": 188,
      "Ý": 189,
      "Þ": 190,
      "ß": 191,
      "à": 192,
      "á": 193,
      "â": 194,
      "ã": 195,
      "ä": 196,
      "å": 197,
      "æ": 198,
      "ç": 199,
      "è": 200,
      "é": 201,
      "ê": 202,
      "ë": 203,
      "ì": 204,
      "í": 205,
      "î": 206,
      "ï": 207,
      "ð": 208,
      "ñ": 209,
      "ò": 210,
      "ó": 211,
      "ô": 212,
      "õ": 213,
      "ö": 214,
      "÷": 215,
      "ø": 216,
      "ù": 217,
      "ú": 218,
      "û": 219,
      "ü": 220,
      "ý": 221,
      "þ": 222,
      "ÿ": 223,
      "Ā": 224,
      "ā": 225,
      "Ă": 226,
      "ă": 227,
      "Ą": 228,
      "ą": 229,
      "Ć": 230,
      "ć": 231,
      "Ĉ": 232,
      "ĉ": 233,
      "Ċ": 234,
      "ċ": 235,
      "Č": 236,
      "č": 237,
      "Ď": 238,
      "ď": 239,
      "Đ": 240,
      "đ": 241,
      "Ē": 242,
      "ē": 243,
      "Ĕ": 244,
      "ĕ": 245,
      "Ė": 246,
      "ė": 247,
      "Ę": 248,
      "ę": 249,
      "Ě": 250,
      "ě": 251,
      "Ĝ": 252,
      "ĝ": 253,
      "Ğ": 254,
      "ğ": 255,
      "Ġ": 256,
      "ġ": 257,
      "Ģ": 258,
      "ģ": 259,
      "Ĥ": 260,
      "ĥ": 261,
      "Ħ": 262,
      "ħ": 263,
      "Ĩ": 264,
      "ĩ": 265,
      "Ī": 266,
      "ī": 267,
      "Ĭ": 268,
      "ĭ": 269,
      "Į": 270,
      "į": 271,
      "İ": 272,
      "ı": 273,
      "Ĳ": 274,
      "ĳ": 275,
      "Ĵ": 276,
      "ĵ": 277,
      "Ķ": 278,
      "ķ": 279,
      "ĸ": 280,
      "Ĺ": 281,
      "ĺ": 282,
      "Ļ": 283,
      "ļ": 284,
      "Ľ": 285,
      "ľ": 286,
      "Ŀ": 287,
      "ŀ": 288,
      "Ł": 289,
      "ł": 290,
      "Ń": 291,
      "ti": 292,
      "or": 293,
      "es": 294,
      "ëĭ": 295,
      "ìĹ": 296,
      "Ġi": 297,
      "ar": 298,
      "Ġí": 299,
      "Ġs": 300,
      "nt": 301,
      "nd": 302,
      "al": 303,
      "Ŀ´": 304,
      "ìĿ´": 305,
      "le": 306,
      "Ġc": 307,
      "ìŀ": 308,
      "ng": 309,
      "ìł": 310,
      "ëĭ¤": 311,
      "ê³": 312,
      "ê°": 313,
      "ed": 314,
      "as": 315,
      "Ġo": 316,
      "et": 317,
      "ìĦ": 318,
      "ëĬ": 319,
      "Ġf": 320,
      "is": 321,
      "Ġw": 322,
      "ou": 323,
      "me": 324,
      "tio": 325,
      "ì§": 326,
      "de": 327,
      "tion": 328,
      "ri": 329,
      "Ġp": 330,
      "ëĬĶ": 331,
      "to": 332,
      "Ġb": 333,
      "ro": 334,
      "ìĹĲ": 335,
      "li": 336,
      "ve": 337,
      "ìķ": 338,
      "ìĭ": 339,
      "Ŀĺ": 340,
      "ne": 341,
      "ìĿĺ": 342,
      "Ġh": 343,
      "ra": 344,
      "ê²": 345,
      "ë¡": 346,
      "ĿĦ": 347,
      "ìĿĦ": 348,
      "and": 349,
      "ìľ": 350,
      "ê¸": 351,
      "st": 352,
      "it": 353,
      "ķĺ": 354,
      "ce": 355,
      "se": 356,
      "</": 357,
      "Ġm": 358,
      "ë°": 359,
      "ëı": 360,
      "ë¡ľ": 361,
      "Ġ=": 362,
      "Ġr": 363,
      "Ġìŀ": 364,
      "pe": 365,
      "Ġto": 366,
      "ì§Ģ": 367,
      "ê°Ģ": 368,
      "Ġof": 369,
      "Ġe": 370,
      "ing": 371,
      "ê³ł": 372,
      "ë§": 373,
      "ëĤ": 374,
      "ë¥": 375,
      "ìĤ": 376,
      "ĉĉ": 377,
      "ķľ": 378,
      "ur": 379,
      "Ġin": 380,
      "Ġd": 381,
      "ìļ": 382,
      "íķĺ": 383,
      "--": 384,
      "ch": 385,
      "êµ": 386,
      "ëĵ": 387,
      "Ġand": 388,
      "lo": 389,
      "la": 390,
      "ê¸°": 391,
      ");": 392,
      "ta": 393,
      "co": 394,
      "=\"": 395,
      "Ŀ¼": 396,
      "ct": 397,
      "Ġ(": 398,
      "Ġìł": 399,
      "Ġco": 400,
      "ìĸ": 401,
      "ë¶": 402,
      "ë³": 403,
      "ìĦľ": 404,
      "Ġ{": 405,
      "Ġn": 406,
      "ë¦": 407,
      "íķľ": 408,
      "ìĪ": 409,
      "ĿĢ": 410,
      "ìĿĢ": 411,
      "Ġ<": 412,
      "Ġ1": 413,
      "ìĺ": 414,
      "ìĥ": 415,
      "âĢ": 416,
      "ge": 417,
      "ë¥¼": 418,
      "Īëĭ¤": 419,
      "ìĤ¬": 420,
      "ea": 421,
      "mp": 422,
      "ha": 423,
      "Ġ*": 424,
      "ĊĊ": 425,
      "ns": 426,
      "ëıĦ": 427,
      "ut": 428,
      "ĮĢ": 429,
      "Ġë°": 430,
      "ëĮĢ": 431,
      "ìĬ": 432,
      "ĠS": 433,
      "//": 434,
      "ìĭľ": 435,
      "il": 436,
      "ë¬": 437,
      "id": 438,
      "Ġìķ": 439,
      "ck": 440,
      "el": 441,
      "Ġê²": 442,
      "ìĪĺ": 443,
      "Ŀ¸": 444,
      "ìĿ¸": 445,
      "ìĽ": 446,
      "ul": 447,
      "ĠT": 448,
      "ê·": 449,
      "ĠìĿ´": 450,
      "ĠI": 451,
      "ëª": 452,
      "ë¦¬": 453,
      "ë©": 454,
      "Ġ|": 455,
      "ue": 456,
      "Ġ\"": 457,
      "ķ´": 458,
      "ma": 459,
      "Co": 460,
      "ot": 461,
      "ìľ¼": 462,
      "ëł": 463,
      "na": 464,
      "ìĸ´": 465,
      "ass": 466,
      "ess": 467,
      "fi": 468,
      "Ġg": 469,
      "ĠA": 470,
      "un": 471,
      "ëĲ": 472,
      "Ġv": 473,
      "Ġ}": 474,
      "ver": 475,
      "Ġfor": 476,
      "Ġ2": 477,
      "ad": 478,
      "ty": 479,
      "ir": 480,
      "ĊĊĠ": 481,
      "ìĨ": 482,
      "Ġë§": 483,
      "ëĤĺ": 484,
      "ì²": 485,
      "ĠìĹ": 486,
      "Ġre": 487,
      "\">": 488,
      "his": 489,
      "Ġis": 490,
      "us": 491,
      "pa": 492,
      "ìŀĲ": 493,
      "Ġê°": 494,
      "íķ´": 495,
      "ly": 496,
      "tr": 497,
      "ex": 498,
      "ìĬ¤": 499,
      "ent": 500,
      "ìĥģ": 501,
      "Ġbe": 502,
      "ê³¼": 503,
      "ht": 504,
      "ë¶Ģ": 505,
      "ëĿ¼": 506,
      "ction": 507,
      "ìľ¼ë¡ľ": 508,
      "**": 509,
      "čĊ": 510,
      "est": 511,
      "ìĿ¼": 512,
      "íĸ": 513,
      "Ġ'": 514,
      "ment": 515,
      "ca": 516,
      "lass": 517,
      "hat": 518,
      "()": 519,
      "ig": 520,
      "ĠC": 521,
      "00": 522,
      "ke": 523,
      "ë³´": 524,
      "ì£": 525,
      "ìĻ": 526,
      "ëĵ¤": 527,
      "ë²": 528,
      "ith": 529,
      "ĊĊĠĠ": 530,
      "ow": 531,
      "ê·¸": 532,
      "ì¡": 533,
      "ëħ": 534,
      "ì¹": 535,
      "this": 536,
      "io": 537,
      "ĊĊĠĠĠ": 538,
      "em": 539,
      "ĠìĪĺ": 540,
      "ëį": 541,
      "ble": 542,
      "ìĹĲìĦľ": 543,
      "ìĦ±": 544,
      "rs": 545,
      "ìĽĲ": 546,
      "ĠM": 547,
      "ì¤": 548,
      "od": 549,
      "ring": 550,
      "ol": 551,
      "ì£¼": 552,
      "íĻ": 553,
      "ë¯": 554,
      "am": 555,
      "Ċĉĉ": 556,
      "ub": 557,
      "----": 558,
      "our": 559,
      "Ġde": 560,
      "ì°": 561,
      "etur": 562,
      "qu": 563,
      "ort": 564,
      "im": 565,
      "Ġy": 566,
      "Ġìĺ": 567,
      "ĠëĮĢ": 568,
      "ĠìĤ¬": 569,
      "ë¹": 570,
      "íĺ": 571,
      "ap": 572,
      "ist": 573,
      "ìłķ": 574,
      "ëŀ": 575,
      "ìŀ¥": 576,
      "ĠP": 577,
      "td": 578,
      "Ġìľ": 579,
      "êµ¬": 580,
      "ëŁ": 581,
      "ê´": 582,
      "==": 583,
      "um": 584,
      "nce": 585,
      "ê±": 586,
      "êµŃ": 587,
      "that": 588,
      "ect": 589,
      "eturn": 590,
      "Ġwh": 591,
      "Ġar": 592,
      "ame": 593,
      "Ġthat": 594,
      "ĠìŀĪ": 595,
      "ìłģ": 596,
      "ì¶": 597,
      "ef": 598,
      "Ġit": 599,
      "ë©´": 600,
      "ĠB": 601,
      "ê²Į": 602,
      "Ċĉ": 603,
      "age": 604,
      "Ġê·¸": 605,
      "ĠâĢ": 606,
      "vi": 607,
      "Ġon": 608,
      "Ġif": 609,
      "Ġëª": 610,
      "Ġu": 611,
      "Ġma": 612,
      "Ġwith": 613,
      "Ġas": 614,
      "get": 615,
      "..": 616,
      "ìĨĮ": 617,
      "Ġse": 618,
      "ëıĻ": 619,
      "ĠD": 620,
      "Ġhe": 621,
      "rea": 622,
      "Ġclass": 623,
      "Ġê²ĥ": 624,
      "Ġal": 625,
      "ĠR": 626,
      "ìļ©": 627,
      "Ġê¸°": 628,
      "Ġìĭ": 629,
      "Ġthis": 630,
      "ê³µ": 631,
      "ser": 632,
      "Ġne": 633,
      "ĠH": 634,
      "Ġì§Ģ": 635,
      "Ġli": 636,
      "art": 637,
      "ì¡°": 638,
      "ë¬¸": 639,
      "ĠìĦ": 640,
      "Ġpro": 641,
      "čĊĠ": 642,
      "ë¹Ħ": 643,
      "di": 644,
      "tra": 645,
      "ĠTh": 646,
      "ĠL": 647,
      "po": 648,
      "ê´Ģ": 649,
      "Ġex": 650,
      "Ġê°Ģ": 651,
      "Ġor": 652,
      "ĠìłĦ": 653,
      "ion": 654,
      "ĠF": 655,
      "ĠN": 656,
      "ì¤ĳ": 657,
      "end": 658,
      "Ġíķ": 659,
      "íĥ": 660,
      "ìķĦ": 661,
      "ë§Į": 662,
      "iz": 663,
      "ĠE": 664,
      "ìłľ": 665,
      "ay": 666,
      "><": 667,
      "ìļ°": 668,
      "ëĲĺ": 669,
      "der": 670,
      "be": 671,
      "čĊĠĠ": 672,
      "ata": 673,
      "Ġwas": 674,
      "nte": 675,
      "va": 676,
      "nc": 677,
      "Ġ0": 678,
      "čĊĠĠĠ": 679,
      "ee": 680,
      "ption": 681,
      "ĠíĻ": 682,
      "Ġìĭľ": 683,
      "ting": 684,
      "ìĻĢ": 685,
      "ĠëĤ": 686,
      "Ġ//": 687,
      "ld": 688,
      "rom": 689,
      "Ġíķĺ": 690,
      "nst": 691,
      "íĬ": 692,
      "ê³Ħ": 693,
      "Ġëĵ": 694,
      "ĠThe": 695,
      "->": 696,
      "Ġst": 697,
      "ic": 698,
      "ore": 699,
      "Ġ3": 700,
      "ļĮ": 701,
      "ext": 702,
      "ĠG": 703,
      "ëħĦ": 704,
      "Ġíķľ": 705,
      "tic": 706,
      "Ġ$": 707,
      "íĻĶ": 708,
      "ìłĦ": 709,
      "Ġlo": 710,
      "##": 711,
      "out": 712,
      "ĠW": 713,
      "if": 714,
      "ì§Ħ": 715,
      "Ġreturn": 716,
      "ĠìŀĪëĭ¤": 717,
      "Ġsh": 718,
      "ia": 719,
      "ĠìķĦ": 720,
      "íķĺëĬĶ": 721,
      "ë¯¸": 722,
      "alue": 723,
      "tt": 724,
      "::": 725,
      "ì¹ĺ": 726,
      "ìĹ¬": 727,
      "ile": 728,
      "ë¶Ħ": 729,
      "ind": 730,
      "Ġca": 731,
      "ìĿ": 732,
      "lic": 733,
      "Ġëĭ": 734,
      "ê¹": 735,
      "'s": 736,
      "Ġ</": 737,
      "ìĥĿ": 738,
      "ult": 739,
      "type": 740,
      "íĬ¸": 741,
      "ode": 742,
      "Ġ-": 743,
      "ase": 744,
      "ë¬´": 745,
      "ìļĶ": 746,
      "Ġso": 747,
      "Ġíĺ": 748,
      "rr": 749,
      "Ġìłķ": 750,
      "Ġë³´": 751,
      "ew": 752,
      "par": 753,
      "ers": 754,
      "oo": 755,
      "ure": 756,
      "íĦ": 757,
      "ted": 758,
      "ĊĊĠĠĠĠ": 759,
      "),": 760,
      "Ġ[": 761,
      "ject": 762,
      "Ġìłľ": 763,
      "per": 764,
      "Ġdo": 765,
      "ac": 766,
      "ĊĊĠĠĠĠĠ": 767,
      "Ġ@": 768,
      "ĠO": 769,
      "ĠìŀĲ": 770,
      "íĸĪëĭ¤": 771,
      "ëĲľ": 772,
      "ëĶ": 773,
      "ab": 774,
      "int": 775,
      "></": 776,
      "Ġyou": 777,
      "ry": 778,
      "ì¦": 779,
      "all": 780,
      "ìĿ´ëĭ¤": 781,
      "ìĤ°": 782,
      "../": 783,
      "ë©°": 784,
      "čĊĠĠĠĠ": 785,
      "pan": 786,
      "rou": 787,
      "Ġëĭ¤": 788,
      "for": 789,
      "Ĩµ": 790,
      "Ġwe": 791,
      "unction": 792,
      "ource": 793,
      "nal": 794,
      "Ġëĵ±": 795,
      "ê±°": 796,
      "íļĮ": 797,
      "fe": 798,
      "Ġby": 799,
      "res": 800,
      "\",": 801,
      "ack": 802,
      "Ġle": 803,
      "Ġnot": 804,
      "Ġê²½": 805,
      "Ġ/": 806,
      "ķł": 807,
      "íķł": 808,
      "ìĹħ": 809,
      "íĦ°": 810,
      "ĠìľĦ": 811,
      "pt": 812,
      "os": 813,
      "êµĲ": 814,
      "čĊĠĠĠĠĠ": 815,
      "ëĵľ": 816,
      "(\"": 817,
      "Ġfrom": 818,
      "ml": 819,
      "Ġme": 820,
      "Ġë³": 821,
      "ref": 822,
      "ation": 823,
      "01": 824,
      "ĊĊĠĠĠĠĠĠ": 825,
      "ìĭł": 826,
      "();": 827,
      "ny": 828,
      "nk": 829,
      "Ġì£¼": 830,
      "ì²´": 831,
      "nter": 832,
      "ĊĊĠĠĠĠĠĠĠ": 833,
      "Ġ:": 834,
      "ai": 835,
      "ĠĊ": 836,
      "Ġì¤ĳ": 837,
      "Ġ_": 838,
      "ë£": 839,
      "ublic": 840,
      "âĢĻ": 841,
      "--------": 842,
      "ave": 843,
      "Ġì°": 844,
      "span": 845,
      "up": 846,
      "ĠëĤĺ": 847,
      "ëŁ¬": 848,
      "íķĺê³ł": 849,
      "Ġl": 850,
      "one": 851,
      "Ġch": 852,
      "In": 853,
      "ould": 854,
      "Ġìĥģ": 855,
      "Ġj": 856,
      "ĠìĿ¸": 857,
      "ëªħ": 858,
      "Ġare": 859,
      "čĊĠĠĠĠĠĠ": 860,
      "ast": 861,
      "Ġì¶": 862,
      ").": 863,
      "čĊĠĠĠĠĠĠĠ": 864,
      "ê°Ħ": 865,
      "pro": 866,
      "',": 867,
      "ber": 868,
      "ci": 869,
      "ĠìĿ¼": 870,
      "ëĦ": 871,
      "ì¢": 872,
      "ary": 873,
      "ëį°": 874,
      "ft": 875,
      "St": 876,
      "cri": 877,
      "ë¬¼": 878,
      "so": 879,
      "Ġres": 880,
      "Ġnew": 881,
      "fa": 882,
      "nti": 883,
      "lu": 884,
      "eth": 885,
      "cation": 886,
      "essage": 887,
      "íĶ": 888,
      "Ġ+": 889,
      "ize": 890,
      "Ġ4": 891,
      "Ġê³µ": 892,
      "ag": 893,
      "ni": 894,
      "ey": 895,
      "trans": 896,
      "ì´": 897,
      "mm": 898,
      "Ġ&": 899,
      "Ġëª¨": 900,
      "ëĭĪëĭ¤": 901,
      "ull": 902,
      "ght": 903,
      "Ġti": 904,
      "ard": 905,
      "ìļ´": 906,
      "ëĭĪ": 907,
      "ps": 908,
      "div": 909,
      "Ġíı": 910,
      "name": 911,
      "Ġint": 912,
      "no": 913,
      "ĠJ": 914,
      "Ġ*/": 915,
      "Ġë¶Ģ": 916,
      "ner": 917,
      "set": 918,
      "Ġsta": 919,
      "row": 920,
      "âĢĿ": 921,
      "che": 922,
      "ê¸Ī": 923,
      "imp": 924,
      "ĠU": 925,
      "íĮ": 926,
      "ìķ¼": 927,
      "íı": 928,
      "Ġìľł": 929,
      "****": 930,
      "Ex": 931,
      "ëķ": 932,
      "ĽĦ": 933,
      "Th": 934,
      "ned": 935,
      "ĠCo": 936,
      "ec": 937,
      "ity": 938,
      "Ġtr": 939,
      "Ġla": 940,
      "Ġk": 941,
      "Ġë²": 942,
      "ĠâĢĺ": 943,
      "bject": 944,
      "ķĻ": 945,
      "Ġ.": 946,
      "íķĻ": 947,
      "Ġ5": 948,
      "ill": 949,
      "====": 950,
      "ìľĦ": 951,
      "add": 952,
      "ëĳ": 953,
      "tive": 954,
      "ìĦł": 955,
      "ëł¤": 956,
      "Ġcan": 957,
      "Ġ19": 958,
      "ìĹĪëĭ¤": 959,
      "ord": 960,
      "Ġê´Ģ": 961,
      "ìĽĶ": 962,
      "ëķĮ": 963,
      "ë¯¼": 964,
      "Ġê°ľ": 965,
      "Ġname": 966,
      "íĸī": 967,
      "ìŀ¬": 968,
      "put": 969,
      "port": 970,
      "('": 971,
      "ory": 972,
      "ĠâĢľ": 973,
      "ìĿĮ": 974,
      "Ġmo": 975,
      "ph": 976,
      "lation": 977,
      "ìĦ¸": 978,
      "ĠìķĬ": 979,
      "ëł¥": 980,
      "ress": 981,
      "Ġë¹Ħ": 982,
      "Ġêµ¬": 983,
      "ype": 984,
      "Ġì§": 985,
      "ĠíĮ": 986,
      "Ġhis": 987,
      "ide": 988,
      "../../": 989,
      "Ġì²": 990,
      "rror": 991,
      "ĠëĤ´": 992,
      "ĠìĿĺ": 993,
      "ëĭ¨": 994,
      "Ġcont": 995,
      "low": 996,
      "ë¥´": 997,
      "vent": 998,
      "ìĭĿ": 999,
      "Re": 1000,
      "reat": 1001,
      "íŀ": 1002,
      "ĠìĹ°": 1003,
      "ĠìĨĮ": 1004,
      "ich": 1005,
      "Ġhave": 1006,
      "Ġê³ł": 1007,
      "ight": 1008,
      "Ġfunction": 1009,
      "ìĸĳ": 1010,
      "Ġì¡°": 1011,
      "ust": 1012,
      "Ġíĸ": 1013,
      "lay": 1014,
      "cess": 1015,
      "ount": 1016,
      "Ġpublic": 1017,
      "ĠìŀĪëĬĶ": 1018,
      "ĳľ": 1019,
      "ER": 1020,
      "ê²½": 1021,
      "Pro": 1022,
      "ll": 1023,
      "Ġher": 1024,
      "ĠëĶ": 1025,
      "Se": 1026,
      "Name": 1027,
      "ish": 1028,
      "nde": 1029,
      "html": 1030,
      "ork": 1031,
      "gi": 1032,
      "oc": 1033,
      "ĠíĶ": 1034,
      "ìĺģ": 1035,
      "ĠK": 1036,
      "ì½": 1037,
      "ĠV": 1038,
      "Ġfi": 1039,
      "Ċĉĉĉĉ": 1040,
      "ê±´": 1041,
      "ëĭ¹": 1042,
      "ĠëķĮ": 1043,
      "act": 1044,
      "oid": 1045,
      "que": 1046,
      "eld": 1047,
      "ĠĊĠ": 1048,
      "ning": 1049,
      "nfi": 1050,
      "mi": 1051,
      "Ġë§Ī": 1052,
      "lement": 1053,
      "))": 1054,
      "ê°ľ": 1055,
      "Ġget": 1056,
      "Ġpar": 1057,
      "ì¦Ŀ": 1058,
      "com": 1059,
      "ìĨį": 1060,
      "Ġë°ľ": 1061,
      "ê¹Į": 1062,
      "mo": 1063,
      "ff": 1064,
      "Ġpe": 1065,
      "ĠìĹĨ": 1066,
      "íķľëĭ¤": 1067,
      "ead": 1068,
      "ild": 1069,
      "Type": 1070,
      "fer": 1071,
      "ìķĪ": 1072,
      "ho": 1073,
      "Ġus": 1074,
      "start": 1075,
      "Ġìĸ´": 1076,
      "ration": 1077,
      "rat": 1078,
      "ëĨ": 1079,
      "Â·": 1080,
      "Ġhref": 1081,
      "Ġ#": 1082,
      "ON": 1083,
      "ë§Ī": 1084,
      "ava": 1085,
      "param": 1086,
      "íŀĪ": 1087,
      "sta": 1088,
      "Ġpo": 1089,
      "ound": 1090,
      "Ġvar": 1091,
      "ìµ": 1092,
      "The": 1093,
      "nge": 1094,
      "ìµľ": 1095,
      "code": 1096,
      "Ġíķ´": 1097,
      "ìľł": 1098,
      "ray": 1099,
      "|>": 1100,
      "<|": 1101,
      "da": 1102,
      "fo": 1103,
      "ìĹŃ": 1104,
      "íĥĢ": 1105,
      "test": 1106,
      "av": 1107,
      "source": 1108,
      "Ġout": 1109,
      "hi": 1110,
      "ģ¬": 1111,
      "String": 1112,
      "Ġwhe": 1113,
      "IN": 1114,
      "ëĳĲ": 1115,
      "message": 1116,
      "Ġìĭł": 1117,
      "Ġìĺ¤": 1118,
      "ĠìĦł": 1119,
      "Ġno": 1120,
      "ìĬµ": 1121,
      "ëįĶ": 1122,
      "ëłĪ": 1123,
      "Ġtype": 1124,
      "ell": 1125,
      "able": 1126,
      "Ġë°©": 1127,
      "ê¶": 1128,
      "nse": 1129,
      "ree": 1130,
      "ĠêµŃ": 1131,
      "ĠìĹ¬": 1132,
      "ì±": 1133,
      "ìĺĢ": 1134,
      "alse": 1135,
      "Ġë¶": 1136,
      "Ġcomp": 1137,
      "ĠìĥĿ": 1138,
      "import": 1139,
      "ëħ¸": 1140,
      "čĊĠĠĠĠĠĠĠĠ": 1141,
      "key": 1142,
      "Ġac": 1143,
      "Ġë¯¸": 1144,
      "Ġap": 1145,
      "Ġsu": 1146,
      "Ġë§Ĳ": 1147,
      "ĠíĨµ": 1148,
      "Ġbut": 1149,
      "lle": 1150,
      "ì¢ħ": 1151,
      "ëĤ´": 1152,
      "uct": 1153,
      "Ġhad": 1154,
      "Ġíĥ": 1155,
      "Ċĉĉĉ": 1156,
      "ite": 1157,
      "Ġab": 1158,
      "Ġwhich": 1159,
      "ger": 1160,
      "ìĹ°": 1161,
      "ĠëıĻ": 1162,
      "nfig": 1163,
      "sel": 1164,
      "ms": 1165,
      "Ġ6": 1166,
      "ĠìĦľ": 1167,
      "Ġta": 1168,
      "tch": 1169,
      "Ġun": 1170,
      "ual": 1171,
      ".\"": 1172,
      "čĊĠĠĠĠĠĠĠĠĠ": 1173,
      "Ġë¶Ħ": 1174,
      "vice": 1175,
      "Ġë°ı": 1176,
      "ì§Ģë§Į": 1177,
      "Ġ!": 1178,
      "ant": 1179,
      "ep": 1180,
      "To": 1181,
      "Cont": 1182,
      "bu": 1183,
      "ëĬ¥": 1184,
      "ìĭ¤": 1185,
      "ķ©": 1186,
      "íķ©": 1187,
      "Ġë§Į": 1188,
      "lat": 1189,
      "ous": 1190,
      "cont": 1191,
      "Ġë¬´": 1192,
      "Ġ=>": 1193,
      "rit": 1194,
      "ì°¨": 1195,
      "Ġpri": 1196,
      "return": 1197,
      "Ġvalue": 1198,
      "ĠìĻ": 1199,
      "ìĺ¤": 1200,
      "/>": 1201,
      "elf": 1202,
      "Ġë°Ķ": 1203,
      "Ġall": 1204,
      "ĠëıĦ": 1205,
      "ëŀĺ": 1206,
      "own": 1207,
      "Id": 1208,
      "cal": 1209,
      "ĠĊĠĠ": 1210,
      "lor": 1211,
      "RE": 1212,
      "Ġset": 1213,
      "Ġsa": 1214,
      "ëĺ": 1215,
      "Ġ201": 1216,
      "tat": 1217,
      "Ġup": 1218,
      "les": 1219,
      "vers": 1220,
      "quest": 1221,
      "Ġdis": 1222,
      "čĊĠĠĠĠĠĠĠĠĠĠ": 1223,
      "íĺ¸": 1224,
      "val": 1225,
      "čĊĠĠĠĠĠĠĠĠĠĠĠ": 1226,
      "'t": 1227,
      "pp": 1228,
      "Ī¬": 1229,
      "Ġhas": 1230,
      "íĹ": 1231,
      "ì¸": 1232,
      "ĠĊĠĠĠ": 1233,
      "íĨµ": 1234,
      "ìĿ´ëĿ¼": 1235,
      "lock": 1236,
      "Ġìĺģ": 1237,
      "ĠSt": 1238,
      "bs": 1239,
      "ë²ķ": 1240,
      "any": 1241,
      "ê°ģ": 1242,
      "Ġìļ°": 1243,
      "ë°©": 1244,
      "but": 1245,
      "nne": 1246,
      "Ġìĭ¤": 1247,
      "gh": 1248,
      "Ġself": 1249,
      "ĠìĦ¸": 1250,
      "ëįĺ": 1251,
      "ëĺĲ": 1252,
      "sert": 1253,
      "Ġìµľ": 1254,
      "ê¶Į": 1255,
      "ven": 1256,
      "ë¡Ŀ": 1257,
      "ition": 1258,
      "Ġì´": 1259,
      "ì¤Ģ": 1260,
      "bo": 1261,
      "ĠíĬ": 1262,
      "ë°ĺ": 1263,
      "__": 1264,
      "ìĹĲê²Į": 1265,
      "ëĤľ": 1266,
      "íĴ": 1267,
      "Ġconst": 1268,
      "Ġgo": 1269,
      "yst": 1270,
      "ìŀĳ": 1271,
      "Ġê²°": 1272,
      "red": 1273,
      "íķĺìĹ¬": 1274,
      "Res": 1275,
      "cript": 1276,
      "eg": 1277,
      "ine": 1278,
      "Ġwill": 1279,
      "ĠìĦ±": 1280,
      "ë¥¸": 1281,
      "self": 1282,
      "ìŀħ": 1283,
      "Ġone": 1284,
      "dd": 1285,
      "reate": 1286,
      "19": 1287,
      "íĤ": 1288,
      "ethod": 1289,
      "Ġ==": 1290,
      "ĠìĬ¤": 1291,
      "íĳľ": 1292,
      "Ġê·": 1293,
      "íİ": 1294,
      "om": 1295,
      "ë¸": 1296,
      "10": 1297,
      "class": 1298,
      "ĠëĶ°": 1299,
      "Ġë¬¸": 1300,
      "ception": 1301,
      "ĠëĨ": 1302,
      "ument": 1303,
      "\"/>": 1304,
      "ĠìĽĲ": 1305,
      "mat": 1306,
      "Ġdata": 1307,
      "ST": 1308,
      "íĺķ": 1309,
      "ls": 1310,
      "List": 1311,
      "ĠìķĪ": 1312,
      "ss": 1313,
      "text": 1314,
      "ence": 1315,
      "Ġel": 1316,
      "Ġnull": 1317,
      "ëŀĮ": 1318,
      "ìłģìĿ¸": 1319,
      "20": 1320,
      "ë£Į": 1321,
      "br": 1322,
      "ystem": 1323,
      "ì½Ķ": 1324,
      "ule": 1325,
      "íħ": 1326,
      "Ġra": 1327,
      "pr": 1328,
      "Ġìŀ¥": 1329,
      "let": 1330,
      "ear": 1331,
      "ëĵ¤ìĿ´": 1332,
      "ok": 1333,
      "translation": 1334,
      "êµ°": 1335,
      "lect": 1336,
      "ìĹĲëĬĶ": 1337,
      "ìłģìľ¼ë¡ľ": 1338,
      "gs": 1339,
      "Ġ`": 1340,
      "op": 1341,
      "sh": 1342,
      "ĠìĺĪ": 1343,
      "Ġyour": 1344,
      "oth": 1345,
      "Ġimp": 1346,
      "roup": 1347,
      "ë°ľ": 1348,
      "Ġ10": 1349,
      "ê¸ī": 1350,
      "Ma": 1351,
      "amp": 1352,
      "Ġ>": 1353,
      "Ġ7": 1354,
      "ìĹĪ": 1355,
      "ì¶ľ": 1356,
      "au": 1357,
      "Ġwer": 1358,
      "Code": 1359,
      "att": 1360,
      "pi": 1361,
      "tle": 1362,
      "Ġ8": 1363,
      "AT": 1364,
      "hey": 1365,
      "are": 1366,
      "Ġwere": 1367,
      "Ġmy": 1368,
      "they": 1369,
      "nu": 1370,
      "ëª¨": 1371,
      "ìķĺ": 1372,
      "Ġvoid": 1373,
      "ì¹´": 1374,
      "ling": 1375,
      "ĠëĮĢíķľ": 1376,
      "Ĩł": 1377,
      "emp": 1378,
      "ĠëĺĲ": 1379,
      "íĭ": 1380,
      "ĠìĤ": 1381,
      "ĠIn": 1382,
      "LE": 1383,
      "rc": 1384,
      "íı¬": 1385,
      "ĠëĲĺ": 1386,
      "ìŀĦ": 1387,
      "Ġì§Ħ": 1388,
      "://": 1389,
      "Ġthey": 1390,
      "ë¨": 1391,
      "ìłĲ": 1392,
      "ìĭ¬": 1393,
      "Ġro": 1394,
      "line": 1395,
      "ëĲľëĭ¤": 1396,
      "use": 1397,
      "Ġê±°": 1398,
      "ì»": 1399,
      "ê¹Įì§Ģ": 1400,
      "eir": 1401,
      "Ġdes": 1402,
      "íķĺê²Į": 1403,
      "Ġëı": 1404,
      "íģ¬": 1405,
      "ìħ": 1406,
      "heir": 1407,
      "Ġìŀ¬": 1408,
      "their": 1409,
      "íĴĪ": 1410,
      "íĽĦ": 1411,
      "Ġê°ķ": 1412,
      "Ġcom": 1413,
      "ire": 1414,
      "----------------": 1415,
      "íĶĦ": 1416,
      "Ġspe": 1417,
      "data": 1418,
      "));": 1419,
      "ìĦĿ": 1420,
      "Ġê°Ļ": 1421,
      "Ġtheir": 1422,
      "right": 1423,
      "irst": 1424,
      "led": 1425,
      "vat": 1426,
      "ved": 1427,
      "py": 1428,
      "ìļ¸": 1429,
      "ton": 1430,
      "we": 1431,
      "OR": 1432,
      "ĠêµĲ": 1433,
      "\"><": 1434,
      "xt": 1435,
      "Ar": 1436,
      "string": 1437,
      "gin": 1438,
      "ĠHe": 1439,
      "Ġìĸ": 1440,
      "ê²©": 1441,
      "Ġíķľëĭ¤": 1442,
      "ĠíĽĦ": 1443,
      "Data": 1444,
      "Ġë°ĺ": 1445,
      "log": 1446,
      "ìĺĢëĭ¤": 1447,
      "ìķ½": 1448,
      "ìĪł": 1449,
      "urr": 1450,
      "Ġline": 1451,
      "ĠíĺĦ": 1452,
      "Ġìłģ": 1453,
      "ie": 1454,
      "Ġstr": 1455,
      "og": 1456,
      "eta": 1457,
      "Ġê¹": 1458,
      "ë©´ìĦľ": 1459,
      "Ġtime": 1460,
      "Ġend": 1461,
      "ĠëĦ": 1462,
      "Ġmore": 1463,
      "ally": 1464,
      "Ġot": 1465,
      "Ġë¶Ī": 1466,
      "><|": 1467,
      "|><|": 1468,
      "dat": 1469,
      "ĠíĻķ": 1470,
      "form": 1471,
      "nder": 1472,
      "htt": 1473,
      "read": 1474,
      "Ġfalse": 1475,
      "ĊĊĠĠĠĠĠĠĠĠ": 1476,
      "):": 1477,
      "ĠY": 1478,
      "Ġoth": 1479,
      "Ġwhen": 1480,
      "ptions": 1481,
      "vate": 1482,
      "iew": 1483,
      "Ġtrue": 1484,
      "Par": 1485,
      "var": 1486,
      "Ġëĭ¨": 1487,
      "ë³¸": 1488,
      "ete": 1489,
      "ĊĊĠĠĠĠĠĠĠĠĠ": 1490,
      "ĠëįĶ": 1491,
      "rite": 1492,
      "ëĪ": 1493,
      "ãĢ": 1494,
      "ces": 1495,
      "********": 1496,
      "Ġbo": 1497,
      "000": 1498,
      "Ġê°Ĳ": 1499,
      "umber": 1500,
      "table": 1501,
      "very": 1502,
      "ngt": 1503,
      "Ġen": 1504,
      "íĹĺ": 1505,
      "Ġwho": 1506,
      "ĠIt": 1507,
      "Ġelse": 1508,
      "12": 1509,
      "ID": 1510,
      "ngth": 1511,
      "Ġfa": 1512,
      "AR": 1513,
      "qual": 1514,
      "Ġpa": 1515,
      "ëŁī": 1516,
      "ë£¨": 1517,
      "ga": 1518,
      "Ch": 1519,
      "ë¶ĢíĦ°": 1520,
      "Ġshe": 1521,
      "Bu": 1522,
      "ê²°": 1523,
      "Ġpr": 1524,
      "Ġinc": 1525,
      "íĸĪ": 1526,
      "ì§Ī": 1527,
      "Ġì¶Ķ": 1528,
      "Ġany": 1529,
      "Ġover": 1530,
      "ign": 1531,
      "mes": 1532,
      "ĠĊĠĠĠĠ": 1533,
      "back": 1534,
      "Ġbu": 1535,
      "Ġ)": 1536,
      "ì§ģ": 1537,
      "lient": 1538,
      "íķĺê¸°": 1539,
      "Value": 1540,
      "De": 1541,
      "fte": 1542,
      "eat": 1543,
      "ìĬµëĭĪëĭ¤": 1544,
      "Ġ9": 1545,
      "////": 1546,
      "ëģ": 1547,
      "gra": 1548,
      "ĠíĬ¹": 1549,
      "odel": 1550,
      "ili": 1551,
      "ach": 1552,
      "ĠìĦ¤": 1553,
      "ë¦°": 1554,
      "\");": 1555,
      "pri": 1556,
      "ties": 1557,
      "Ġê³Ħ": 1558,
      "ĠìķĮ": 1559,
      "mer": 1560,
      "ĊĊĠĠĠĠĠĠĠĠĠĠ": 1561,
      "fter": 1562,
      "AL": 1563,
      "EN": 1564,
      "Ġíı¬": 1565,
      "mage": 1566,
      "Ġëħ¸": 1567,
      "ĊĊĠĠĠĠĠĠĠĠĠĠĠ": 1568,
      "íĥľ": 1569,
      "mary": 1570,
      "Ġstring": 1571,
      "ëĸ": 1572,
      "Ġëĭ¹": 1573,
      "Ġ20": 1574,
      "ribut": 1575,
      "Stat": 1576,
      "íĺĦ": 1577,
      "man": 1578,
      "It": 1579,
      "ĉĉĉĉ": 1580,
      "hem": 1581,
      "Ġcha": 1582,
      "Ġê²½ìļ°": 1583,
      "Ġad": 1584,
      "Ġì°¨": 1585,
      "ìĬ¹": 1586,
      "tes": 1587,
      "pect": 1588,
      "ler": 1589,
      "ndex": 1590,
      "Ġbee": 1591,
      "ive": 1592,
      "ark": 1593,
      "ance": 1594,
      "hing": 1595,
      "Ġsome": 1596,
      "tom": 1597,
      "ĠìĤ¬ëŀĮ": 1598,
      "ask": 1599,
      "ors": 1600,
      "Ġë§İ": 1601,
      "Ġë°°": 1602,
      "con": 1603,
      "ĠìĤ¬ìļ©": 1604,
      "ìĦ¤": 1605,
      "ì²Ń": 1606,
      "For": 1607,
      "._": 1608,
      "Ġë°Ľ": 1609,
      "ise": 1610,
      "value": 1611,
      "ķ¨": 1612,
      "íķ¨": 1613,
      "pace": 1614,
      "them": 1615,
      "Ġothe": 1616,
      "Ġother": 1617,
      "``": 1618,
      "Ġbeen": 1619,
      "mb": 1620,
      "ëł¨": 1621,
      "Ã©": 1622,
      "Ġ/**": 1623,
      "ĠĊĠĠĠĠĠ": 1624,
      "urrent": 1625,
      "uth": 1626,
      "ĠìľĦíķ´": 1627,
      "eri": 1628,
      "ts": 1629,
      "ìĶ": 1630,
      "Ġhim": 1631,
      "íĸ¥": 1632,
      "========": 1633,
      "11": 1634,
      "Ġ200": 1635,
      "Ġwould": 1636,
      "iss": 1637,
      "Ġë§¤": 1638,
      "ody": 1639,
      "ì²ĺ": 1640,
      "Ġìŀĳ": 1641,
      "Ġid": 1642,
      "Ġabout": 1643,
      "ê´ĳ": 1644,
      "px": 1645,
      "new": 1646,
      "ì¼": 1647,
      "tw": 1648,
      "fault": 1649,
      "Set": 1650,
      "Ġinto": 1651,
      "Ġper": 1652,
      "perty": 1653,
      "col": 1654,
      "late": 1655,
      "\")": 1656,
      "ĠíĪ¬": 1657,
      "nit": 1658,
      "];": 1659,
      "han": 1660,
      "Ġadd": 1661,
      "ë©Ķ": 1662,
      "des": 1663,
      "date": 1664,
      "Ġthem": 1665,
      "Exception": 1666,
      "ì²ľ": 1667,
      "tri": 1668,
      "Ġíİ": 1669,
      "ì±ħ": 1670,
      "Ġfirst": 1671,
      "Ġinter": 1672,
      "Ġ||": 1673,
      "Ġ&&": 1674,
      "Ġuse": 1675,
      "til": 1676,
      "pli": 1677,
      "pos": 1678,
      "aw": 1679,
      "arch": 1680,
      "file": 1681,
      "|--": 1682,
      "Ġ\\": 1683,
      "SS": 1684,
      "ese": 1685,
      "Ġëĵ¤": 1686,
      "Ġqu": 1687,
      "ë¥ĺ": 1688,
      "ponse": 1689,
      "Ġge": 1690,
      "Ġback": 1691,
      "Ġfile": 1692,
      "Ġë¹": 1693,
      "ê°Ĳ": 1694,
      "igh": 1695,
      "Ġdi": 1696,
      "Ġtra": 1697,
      "Ġê³¼": 1698,
      "ves": 1699,
      "comp": 1700,
      "Ġìķ½": 1701,
      "Ġì¶ľ": 1702,
      "Ġval": 1703,
      "ĠìłĢ": 1704,
      "ken": 1705,
      "ëĶĶ": 1706,
      "ash": 1707,
      "íĮĮ": 1708,
      "arget": 1709,
      ".</": 1710,
      "idt": 1711,
      "ilt": 1712,
      "Pa": 1713,
      "top": 1714,
      "ë²Ħ": 1715,
      "ĠíĮĮ": 1716,
      "Ġpla": 1717,
      "ues": 1718,
      "idth": 1719,
      "ëĵ¤ìĿĢ": 1720,
      "Ġì¢": 1721,
      "lea": 1722,
      "íĨł": 1723,
      "Object": 1724,
      "ë¸Į": 1725,
      "ë¡ł": 1726,
      "ëĵł": 1727,
      "($": 1728,
      "ĠĊĠĠĠĠĠĠ": 1729,
      "ë²Ī": 1730,
      "ob": 1731,
      "ip": 1732,
      "ww": 1733,
      "ìľ¼ë©°": 1734,
      "rvice": 1735,
      "Ķëĭ¤": 1736,
      "ĠëĤ¨": 1737,
      "ain": 1738,
      "Ġalso": 1739,
      "íĻĺ": 1740,
      "org": 1741,
      "Test": 1742,
      "son": 1743,
      "Ġìŀħ": 1744,
      "Ġ!=": 1745,
      "ĠĊĠĠĠĠĠĠĠ": 1746,
      "Ġag": 1747,
      "ĠString": 1748,
      "Ġì¦Ŀ": 1749,
      "Ġ%": 1750,
      "ang": 1751,
      "ĠìĹŃ": 1752,
      "ome": 1753,
      ".<|": 1754,
      "ĠíļĮ": 1755,
      "],": 1756,
      "Ġìĥ": 1757,
      "ĠíĶĦ": 1758,
      "íĤ¤": 1759,
      "location": 1760,
      ".'": 1761,
      "Ġwork": 1762,
      "CT": 1763,
      "ë§¤": 1764,
      "bsp": 1765,
      "ook": 1766,
      "Ġ///": 1767,
      "ĠThis": 1768,
      "eck": 1769,
      "of": 1770,
      "mation": 1771,
      "Ġíıī": 1772,
      "ê»": 1773,
      "Ġstatic": 1774,
      "nbsp": 1775,
      "íķĺëĭ¤": 1776,
      "cond": 1777,
      "Key": 1778,
      "Ġê¸": 1779,
      "ìłĢ": 1780,
      "ĠëķĮë¬¸": 1781,
      "Ġope": 1782,
      "Ġíķł": 1783,
      "ëł¹": 1784,
      "Comp": 1785,
      "Ġëį°": 1786,
      "Error": 1787,
      "js": 1788,
      "action": 1789,
      "16": 1790,
      "ote": 1791,
      "Ġcomm": 1792,
      "ëŁ°": 1793,
      "ĠìļĶ": 1794,
      "roid": 1795,
      "ime": 1796,
      "ë°°": 1797,
      "ĠëĳĲ": 1798,
      "eam": 1799,
      "ê·¼": 1800,
      "Ġpos": 1801,
      "eter": 1802,
      "ĠíĻĺ": 1803,
      "ummary": 1804,
      "Ġê³": 1805,
      "etw": 1806,
      "cat": 1807,
      "Ġê±´": 1808,
      "cc": 1809,
      "mber": 1810,
      "IT": 1811,
      "Ġcon": 1812,
      "Ġ--": 1813,
      "ë°Ķ": 1814,
      "ru": 1815,
      "32": 1816,
      "ê°ķ": 1817,
      "().": 1818,
      "nes": 1819,
      "Ġë¬¼": 1820,
      "Ġtrans": 1821,
      "ays": 1822,
      "time": 1823,
      "Ġresult": 1824,
      "DE": 1825,
      "ëĵ¤ìĿĺ": 1826,
      "Get": 1827,
      "ëĭ¬": 1828,
      "iste": 1829,
      "Ġtest": 1830,
      "Ġkn": 1831,
      "')": 1832,
      "Ġë³Ģ": 1833,
      "ëŀĢ": 1834,
      "Ġtw": 1835,
      "Ġlike": 1836,
      "ìľ¡": 1837,
      "Ġíķ¨": 1838,
      "pend": 1839,
      "());": 1840,
      "ĠíķĦ": 1841,
      "ĠCh": 1842,
      "ĠíĨµíķ´": 1843,
      "Ġê¹Ģ": 1844,
      "lish": 1845,
      "ìķĺëĭ¤": 1846,
      "íĭ°": 1847,
      "Ġonly": 1848,
      "ìĪľ": 1849,
      "Ġâ": 1850,
      "Ġíĸī": 1851,
      "íļ": 1852,
      "SE": 1853,
      "ĠíĻĶ": 1854,
      "Ġê²ĥìľ¼ë¡ľ": 1855,
      "ular": 1856,
      "load": 1857,
      "ME": 1858,
      "Ġfinal": 1859,
      "ical": 1860,
      "Fi": 1861,
      "eader": 1862,
      "Ġx": 1863,
      "Ġê²ĥìĿ´": 1864,
      "old": 1865,
      "Ġcould": 1866,
      "link": 1867,
      "ìĿĳ": 1868,
      "ĠíķĻ": 1869,
      "Ġ12": 1870,
      "ìĨ¡": 1871,
      "čĊĠĠĠĠĠĠĠĠĠĠĠĠ": 1872,
      "after": 1873,
      "íķĺì§Ģ": 1874,
      "ove": 1875,
      "round": 1876,
      "ĠíĻľ": 1877,
      "ĠíĿ": 1878,
      "view": 1879,
      "ens": 1880,
      "ĠëĪ": 1881,
      "rame": 1882,
      "ëĲł": 1883,
      "gle": 1884,
      "ions": 1885,
      "du": 1886,
      "ì¡´": 1887,
      "Ġwhat": 1888,
      "size": 1889,
      "Ġstat": 1890,
      "Ġprivate": 1891,
      "ĠíĶ¼": 1892,
      "ys": 1893,
      "Po": 1894,
      "ë³µ": 1895,
      "version": 1896,
      ",\"": 1897,
      "ë¦½": 1898,
      "lean": 1899,
      "Ġsaid": 1900,
      "lude": 1901,
      "ness": 1902,
      "Ġ,": 1903,
      "čĊĠĠĠĠĠĠĠĠĠĠĠĠĠ": 1904,
      "indow": 1905,
      "mit": 1906,
      "const": 1907,
      "owe": 1908,
      "tyle": 1909,
      "Ġits": 1910,
      "ìĹĲìĦľëĬĶ": 1911,
      "Ġmi": 1912,
      "ies": 1913,
      "function": 1914,
      "play": 1915,
      "AN": 1916,
      "Ġ18": 1917,
      "Ġsub": 1918,
      "Ġê²ĥìĿ´ëĭ¤": 1919,
      "ute": 1920,
      "ë³Ħ": 1921,
      "Lo": 1922,
      "tions": 1923,
      "than": 1924,
      "####": 1925,
      "java": 1926,
      "Ġìĺ¬": 1927,
      "ì¡±": 1928,
      "201": 1929,
      "Class": 1930,
      "Ġì§ģ": 1931,
      "nces": 1932,
      "Ġì¹": 1933,
      "onent": 1934,
      "ë´": 1935,
      "ëĤ¨": 1936,
      "upport": 1937,
      "Ġì°¸": 1938,
      "min": 1939,
      "hrow": 1940,
      "Ġkey": 1941,
      "mai": 1942,
      "throw": 1943,
      "íĮĲ": 1944,
      "face": 1945,
      "rn": 1946,
      "vel": 1947,
      "Ġëĭ¬": 1948,
      "['": 1949,
      "Ġchar": 1950,
      "ê»ĺ": 1951,
      "Ġorg": 1952,
      "pat": 1953,
      "Ġcase": 1954,
      "Ġëªħ": 1955,
      "ffer": 1956,
      "View": 1957,
      "čĊĠĠĠĠĠĠĠĠĠĠĠĠĠĠ": 1958,
      "cription": 1959,
      "ëĥ": 1960,
      "íĶ¼": 1961,
      "index": 1962,
      "Ġê°Ħ": 1963,
      "Tra": 1964,
      "\"></": 1965,
      "ìĽĮ": 1966,
      "Ġê°ģ": 1967,
      "ĠìĹ´": 1968,
      "public": 1969,
      "čĊĠĠĠĠĠĠĠĠĠĠĠĠĠĠĠ": 1970,
      "pre": 1971,
      "ìĸµ": 1972,
      "ĠëĨĴ": 1973,
      "Ġshould": 1974,
      "Ġdef": 1975,
      "irect": 1976,
      "Ġobject": 1977,
      "Ġê¸Ī": 1978,
      "As": 1979,
      "ely": 1980,
      "');": 1981,
      "ice": 1982,
      "15": 1983,
      "ë¦Ħ": 1984,
      "base": 1985,
      "ĠëĶ°ëĿ¼": 1986,
      "bar": 1987,
      "ì·": 1988,
      "ëĲĺëĬĶ": 1989,
      "ĠMa": 1990,
      "summary": 1991,
      "Ġmay": 1992,
      "ĠìĿ´ìĥģ": 1993,
      "str": 1994,
      "Ġë³¸": 1995,
      "Ġì§ĢëĤľ": 1996,
      "inter": 1997,
      "Ġhand": 1998,
      "Ġthan": 1999,
      "ë¦¬ê³ł": 2000,
      "Ġsee": 2001,
      "Event": 2002,
      "nch": 2003,
      "target": 2004,
      "\";": 2005,
      "ick": 2006,
      "Ġëª»": 2007,
      "ĠSh": 2008,
      "tal": 2009,
      "Ġíģ": 2010,
      "Ġìļ´": 2011,
      "ĠíķĺëĬĶ": 2012,
      "stat": 2013,
      "Ġpre": 2014,
      "\":": 2015,
      "ric": 2016,
      "File": 2017,
      "thing": 2018,
      "cial": 2019,
      "ê²ł": 2020,
      "go": 2021,
      "ķŃ": 2022,
      "ample": 2023,
      "íĿ": 2024,
      "íķŃ": 2025,
      "13": 2026,
      "lete": 2027,
      "king": 2028,
      "(),": 2029,
      "CO": 2030,
      "ames": 2031,
      "14": 2032,
      "nav": 2033,
      "ëĤł": 2034,
      "ron": 2035,
      "ĠëĬ": 2036,
      "ian": 2037,
      "Ġafter": 2038,
      "ìĨĲ": 2039,
      "odule": 2040,
      "']": 2041,
      "ëĲĲ": 2042,
      "ëĭ¤ëĬĶ": 2043,
      "ĠìĻ¸": 2044,
      "ĊĉĠ": 2045,
      "ĠíķľêµŃ": 2046,
      "app": 2047,
      "ìłĪ": 2048,
      "order": 2049,
      "18": 2050,
      "ud": 2051,
      "ĠìķĦëĭĪ": 2052,
      "ëª©": 2053,
      "Ġused": 2054,
      "ì·¨": 2055,
      "ful": 2056,
      "can": 2057,
      "ĠìĤ°": 2058,
      "Ġneed": 2059,
      "othe": 2060,
      "ì¸¡": 2061,
      "Ġ?": 2062,
      "http": 2063,
      "UL": 2064,
      "},": 2065,
      "ĠAs": 2066,
      "hou": 2067,
      "ìĻ¸": 2068,
      "ccess": 2069,
      "rough": 2070,
      "Ġì´Ī": 2071,
      "ĠAr": 2072,
      "script": 2073,
      "rator": 2074,
      "Ġcons": 2075,
      "ì±Ħ": 2076,
      "Ġì»": 2077,
      "Ġì§ĳ": 2078,
      "ments": 2079,
      "Ġìļ°ë¦¬": 2080,
      "ern": 2081,
      "Ġexp": 2082,
      "ĠìłĲ": 2083,
      "url": 2084,
      "50": 2085,
      "íİ¸": 2086,
      "ilte": 2087,
      "ë§Ŀ": 2088,
      "ĠìŀĦ": 2089,
      "Ġam": 2090,
      "Ġunder": 2091,
      "si": 2092,
      "ui": 2093,
      "ĠSe": 2094,
      "ze": 2095,
      "ush": 2096,
      "bel": 2097,
      "RO": 2098,
      "ĠíĹ": 2099,
      "By": 2100,
      "ìĺĪ": 2101,
      "pack": 2102,
      "Time": 2103,
      "Ġerror": 2104,
      "Ġëª©": 2105,
      "path": 2106,
      "Ġíĳľ": 2107,
      "list": 2108,
      "].": 2109,
      "ople": 2110,
      "íĻ©": 2111,
      "dis": 2112,
      "other": 2113,
      "ving": 2114,
      "cu": 2115,
      "ìĿ´ëĿ¼ê³ł": 2116,
      "ets": 2117,
      "md": 2118,
      "Que": 2119,
      "Ġreg": 2120,
      "Ġì½Ķ": 2121,
      "ĠìĤ´": 2122,
      "âĢĵ": 2123,
      "###": 2124,
      "Ġëĭ¤ë¥¸": 2125,
      "ily": 2126,
      "vid": 2127,
      "Ġtwo": 2128,
      "ont": 2129,
      "item": 2130,
      "Node": 2131,
      "ìĺ¨": 2132,
      "Element": 2133,
      "Ġmethod": 2134,
      "cho": 2135,
      "Ġ);": 2136,
      "Ġì¹ĺ": 2137,
      "pes": 2138,
      "ëĵ±": 2139,
      "AC": 2140,
      "Ġìĸĳ": 2141,
      "ION": 2142,
      "íĥĿ": 2143,
      "ans": 2144,
      "Ġ/>": 2145,
      "Ġes": 2146,
      "nat": 2147,
      "ased": 2148,
      "ìĶ¨": 2149,
      "Ġìĭ¬": 2150,
      "hrough": 2151,
      "tho": 2152,
      "Ġwa": 2153,
      "ìĿ´ëĤĺ": 2154,
      "Ref": 2155,
      "yl": 2156,
      "through": 2157,
      "':": 2158,
      "ëĵ¤ìĿĦ": 2159,
      "ding": 2160,
      "als": 2161,
      "ures": 2162,
      "Ġë¨": 2163,
      "ĠRe": 2164,
      "Ġê°ĻìĿĢ": 2165,
      "temp": 2166,
      "nable": 2167,
      "ĠIf": 2168,
      "ges": 2169,
      "Ġyear": 2170,
      "ride": 2171,
      "ë³ĳ": 2172,
      "Ġíĺķ": 2173,
      "Request": 2174,
      "ĠíĸĪëĭ¤": 2175,
      "30": 2176,
      "âĢĶ": 2177,
      "Ġob": 2178,
      "Ġì²ĺ": 2179,
      "ĠìĥĪ": 2180,
      "Ca": 2181,
      "!--": 2182,
      "/*": 2183,
      "ong": 2184,
      "edia": 2185,
      "Ġì´Ŀ": 2186,
      "ĠëĮĢíķ´": 2187,
      "ì¦Ī": 2188,
      "/**": 2189,
      "Ġì¢ħ": 2190,
      "Sh": 2191,
      "ëĿ¼ê³ł": 2192,
      "ncy": 2193,
      "Ġëģ": 2194,
      "State": 2195,
      "Ġau": 2196,
      "Ġjust": 2197,
      "ords": 2198,
      "Ġtitle": 2199,
      "Ġour": 2200,
      "Ġcal": 2201,
      "ë¦¼": 2202,
      "Ġdid": 2203,
      "Ġê²Į": 2204,
      "ì´Ī": 2205,
      "ëŁ¼": 2206,
      "ribute": 2207,
      "ê¸°ë¥¼": 2208,
      "Text": 2209,
      "ĠĊĠĠĠĠĠĠĠĠ": 2210,
      "elp": 2211,
      "Info": 2212,
      "cifi": 2213,
      "its": 2214,
      "een": 2215,
      "Ġê°ĢëĬ¥": 2216,
      "Pat": 2217,
      "TE": 2218,
      "ëĲĺìĸ´": 2219,
      "inc": 2220,
      "64": 2221,
      "ĠPro": 2222,
      "orm": 2223,
      "ope": 2224,
      "gument": 2225,
      "length": 2226,
      "pache": 2227,
      "ilter": 2228,
      "ì°°": 2229,
      "rate": 2230,
      "Ġcar": 2231,
      "Ġthrough": 2232,
      "Ġevent": 2233,
      "=\"../../": 2234,
      "ëŀĳ": 2235,
      "tial": 2236,
      "nager": 2237,
      "ëıĦë¡Ŀ": 2238,
      "Ġthrow": 2239,
      "ĠìĥĿê°ģ": 2240,
      "Ġpart": 2241,
      "Ġwher": 2242,
      "loa": 2243,
      "Ġmake": 2244,
      "Ġfol": 2245,
      "Ġwhere": 2246,
      "Path": 2247,
      "resent": 2248,
      "ba": 2249,
      "eturns": 2250,
      "PE": 2251,
      "user": 2252,
      "Ġknow": 2253,
      "ĠëĤĺíĥĢ": 2254,
      "Ġì¢ĭ": 2255,
      "ì§ĳ": 2256,
      "ìħĺ": 2257,
      "Config": 2258,
      "Ġcall": 2259,
      "Ġstart": 2260,
      "Ġser": 2261,
      "unc": 2262,
      "ìľ¨": 2263,
      "Ġnumber": 2264,
      "tte": 2265,
      "ulti": 2266,
      "25": 2267,
      "by": 2268,
      "čĊĉ": 2269,
      "Index": 2270,
      "do": 2271,
      "Ġdif": 2272,
      "íĪ¬": 2273,
      "ìĽĢ": 2274,
      "vis": 2275,
      "fore": 2276,
      "ization": 2277,
      "oolean": 2278,
      "ĠìĹ°êµ¬": 2279,
      "Ġê²Ģ": 2280,
      "Ġsuch": 2281,
      "fine": 2282,
      "())": 2283,
      "ired": 2284,
      "ries": 2285,
      "uration": 2286,
      "ĠíķĦìļĶ": 2287,
      "|--|--": 2288,
      "ì¶ķ": 2289,
      "íķĺìĺĢëĭ¤": 2290,
      "PI": 2291,
      "wn": 2292,
      "rid": 2293,
      "lang": 2294,
      "rap": 2295,
      "ward": 2296,
      "auth": 2297,
      "ĠìŀĲìĭł": 2298,
      "ĠWe": 2299,
      "Ġë°Ŀ": 2300,
      "Ġoff": 2301,
      "iles": 2302,
      "ainer": 2303,
      "Ġass": 2304,
      "ë°ķ": 2305,
      "ĠíĮĲ": 2306,
      "rm": 2307,
      "ĠĊĠĠĠĠĠĠĠĠĠ": 2308,
      "Ġind": 2309,
      "ìĹĲëıĦ": 2310,
      "ì¡Į": 2311,
      "thou": 2312,
      "sub": 2313,
      "ĠìľĦíķľ": 2314,
      "count": 2315,
      "Ġlook": 2316,
      "Ġusing": 2317,
      "ë³´ëĭ¤": 2318,
      "Ġíļ": 2319,
      "rol": 2320,
      "ĊĊĉ": 2321,
      "Ġíķ¨ê»ĺ": 2322,
      "ëĴ": 2323,
      "irt": 2324,
      "Ġsi": 2325,
      "ĠíķĺëĤĺ": 2326,
      "Ġda": 2327,
      "=\"+": 2328,
      "ì§ĢëĬĶ": 2329,
      "Ġíģ¬": 2330,
      "Ġwant": 2331,
      "Context": 2332,
      "Param": 2333,
      "Ģë¡ľ": 2334,
      "config": 2335,
      "ched": 2336,
      "Map": 2337,
      "ker": 2338,
      "doc": 2339,
      "Ġ/*": 2340,
      "...": 2341,
      "Ċĉĉĉĉĉ": 2342,
      "Ġrequ": 2343,
      "ĠìĨį": 2344,
      "Field": 2345,
      "ĠDe": 2346,
      "oogle": 2347,
      "Ġì²Ń": 2348,
      "Âł": 2349,
      "Ġ15": 2350,
      "Ġcol": 2351,
      "TR": 2352,
      "Ġque": 2353,
      "Ġarray": 2354,
      "íģ": 2355,
      "Ġassert": 2356,
      "Ġbeca": 2357,
      "Array": 2358,
      "reak": 2359,
      "íħĮ": 2360,
      "ìł¸": 2361,
      "nation": 2362,
      "Add": 2363,
      "ders": 2364,
      "Ġë¬¸ìłľ": 2365,
      "Item": 2366,
      "22": 2367,
      "ëłĪìĿ´": 2368,
      "Ġbefore": 2369,
      "alt": 2370,
      "Ġext": 2371,
      "ĠíĥĢ": 2372,
      "ëĿ¼ëĬĶ": 2373,
      "ìĵ": 2374,
      "Le": 2375,
      "Ġplay": 2376,
      "Ġright": 2377,
      "tur": 2378,
      "ility": 2379,
      "ĠâĢĵ": 2380,
      "ilder": 2381,
      "Ġ(!": 2382,
      "ĊĉĠĠ": 2383,
      "formation": 2384,
      "ene": 2385,
      "field": 2386,
      "Ġë¦¬": 2387,
      "ëıħ": 2388,
      "ĠEx": 2389,
      "ìŀĲëĬĶ": 2390,
      "No": 2391,
      "ntity": 2392,
      "main": 2393,
      "Ġatt": 2394,
      "Ġ},": 2395,
      ")</": 2396,
      "ized": 2397,
      "Ġjava": 2398,
      "Ġlist": 2399,
      "\"\"": 2400,
      "ctor": 2401,
      "color": 2402,
      "olu": 2403,
      "ground": 2404,
      "group": 2405,
      "ì¤Ħ": 2406,
      "void": 2407,
      "íķĺë©°": 2408,
      "my": 2409,
      "apache": 2410,
      "17": 2411,
      "Ġdown": 2412,
      "Ġê²ĥìĿĢ": 2413,
      "Li": 2414,
      "ĠëĺĲëĬĶ": 2415,
      "nish": 2416,
      "Ġíĺ¸": 2417,
      "LA": 2418,
      "ĠĊĠĠĠĠĠĠĠĠĠĠ": 2419,
      "ëĬĶëį°": 2420,
      "ax": 2421,
      "body": 2422,
      "íĻľ": 2423,
      "api": 2424,
      "src": 2425,
      "Ġì²´": 2426,
      "Str": 2427,
      "Ġ});": 2428,
      "net": 2429,
      "Ġread": 2430,
      "Ġstate": 2431,
      "Ġpeople": 2432,
      "Ġì§ĢìĹŃ": 2433,
      "Service": 2434,
      "Ġlong": 2435,
      "Equal": 2436,
      "ìŀĲìĿĺ": 2437,
      "Ġrequest": 2438,
      "nstance": 2439,
      "quot": 2440,
      "node": 2441,
      "ìº": 2442,
      "thi": 2443,
      "He": 2444,
      "ession": 2445,
      "ĠĊĠĠĠĠĠĠĠĠĠĠĠ": 2446,
      "Ġë³µ": 2447,
      "ë¶ģ": 2448,
      "Ġgra": 2449,
      "íķĺë©´": 2450,
      "ctions": 2451,
      "ĉĉĉ": 2452,
      "lob": 2453,
      "Ġë°ķ": 2454,
      "ĠëĴ": 2455,
      "ê±¸": 2456,
      "Ġìķŀ": 2457,
      "Ġ16": 2458,
      "Ġëĵ¤ìĸ´": 2459,
      "ole": 2460,
      "orld": 2461,
      "ë¦¬ëĬĶ": 2462,
      "ëĭ´": 2463,
      "ëĦĪ": 2464,
      "ĠíĶĦë¡ľ": 2465,
      "ida": 2466,
      "Ġíķ©": 2467,
      "ost": 2468,
      "ìĥī": 2469,
      "200": 2470,
      "Ġê°Ģìŀ¥": 2471,
      "comm": 2472,
      "wh": 2473,
      "Ġìĭľìŀĳ": 2474,
      "ĠìĹĲ": 2475,
      "ìĬ¤íĬ¸": 2476,
      "IC": 2477,
      "ĊĉĠĠĠ": 2478,
      "ìĦ±ìĿĦ": 2479,
      "ĠìĿ´ìļ©": 2480,
      "Ġê´Ģëł¨": 2481,
      "reg": 2482,
      "Ġnow": 2483,
      "Ġhow": 2484,
      "Ġê²ĥìĿĦ": 2485,
      "ì³": 2486,
      "Ġë©Ķ": 2487,
      "';": 2488,
      "Ġëĵľ": 2489,
      "ë³Ģ": 2490,
      "With": 2491,
      "UR": 2492,
      "Ġê·¸ëŁ¬": 2493,
      "ëĿ": 2494,
      "ctive": 2495,
      "Over": 2496,
      "Ġfollow": 2497,
      "ãģ": 2498,
      "Ġparam": 2499,
      "Ġdefault": 2500,
      "ral": 2501,
      "Ġmost": 2502,
      "////////": 2503,
      "lt": 2504,
      "Ġ11": 2505,
      "rolle": 2506,
      "Ġerr": 2507,
      "error": 2508,
      "Ġsc": 2509,
      "ĠëķĮë¬¸ìĹĲ": 2510,
      "ëĲĲëĭ¤": 2511,
      "Ġmar": 2512,
      "hese": 2513,
      "these": 2514,
      "Ġíŀ": 2515,
      "****************": 2516,
      "umn": 2517,
      "proto": 2518,
      "íļį": 2519,
      "Ġcurrent": 2520,
      "Of": 2521,
      "Ġpass": 2522,
      "ĠWh": 2523,
      "den": 2524,
      "Ġcontent": 2525,
      "21": 2526,
      "sty": 2527,
      "aso": 2528,
      "not": 2529,
      "title": 2530,
      "tation": 2531,
      "};": 2532,
      "rong": 2533,
      "ëĮĢë¡ľ": 2534,
      "uch": 2535,
      "íķ´ìķ¼": 2536,
      "ins": 2537,
      "Ġinclu": 2538,
      "map": 2539,
      "Ġthese": 2540,
      "lable": 2541,
      "Size": 2542,
      "Ġsize": 2543,
      "Ġaw": 2544,
      "raw": 2545,
      "true": 2546,
      "vo": 2547,
      "lose": 2548,
      "='": 2549,
      "Cha": 2550,
      "Ġinst": 2551,
      "Ġ30": 2552,
      "ync": 2553,
      "FF": 2554,
      "Ġë§ŀ": 2555,
      "cent": 2556,
      "Ġ-->": 2557,
      "nput": 2558,
      "Ġì¹´": 2559,
      "Des": 2560,
      "Ġ===": 2561,
      "Ġwhile": 2562,
      "ìĸ¸": 2563,
      "Ġgi": 2564,
      "Ġfield": 2565,
      "tor": 2566,
      "cl": 2567,
      "Ġê·¼": 2568,
      "input": 2569,
      "Da": 2570,
      "Ġrep": 2571,
      "++": 2572,
      "AD": 2573,
      "Ġelement": 2574,
      "block": 2575,
      "Ġ100": 2576,
      "Ġìŀĺ": 2577,
      "Ġrun": 2578,
      "ĠíĴ": 2579,
      "Ġthi": 2580,
      "Ġë²ķ": 2581,
      "Ġìĸ´ëĸ": 2582,
      "ifi": 2583,
      "ë¦¬ë¥¼": 2584,
      "gn": 2585,
      "lear": 2586,
      "Ġëħ": 2587,
      "gg": 2588,
      "object": 2589,
      "Ġvis": 2590,
      "Ġê²°ê³¼": 2591,
      "result": 2592,
      "err": 2593,
      "ê±°ëĤĺ": 2594,
      "ttp": 2595,
      "meth": 2596,
      "ced": 2597,
      "assert": 2598,
      "Hand": 2599,
      "Ġinsta": 2600,
      "Ġìļ©": 2601,
      "Ġway": 2602,
      "ĠX": 2603,
      "rt": 2604,
      "Ġë¯¼": 2605,
      "cha": 2606,
      "ĠìĨĲ": 2607,
      "create": 2608,
      "ì¼Ģ": 2609,
      "Ġëĸ": 2610,
      "ages": 2611,
      "nts": 2612,
      "fined": 2613,
      "ë¸Ķ": 2614,
      "ìĹ´": 2615,
      "Ġdu": 2616,
      "https": 2617,
      "ale": 2618,
      "We": 2619,
      "Ġtext": 2620,
      "ĠëıĮ": 2621,
      "33": 2622,
      "Ġuser": 2623,
      "Ġ:=": 2624,
      "íıī": 2625,
      "ĠìĹħ": 2626,
      "erso": 2627,
      "[]": 2628,
      "Ġmin": 2629,
      "tings": 2630,
      "Ġ199": 2631,
      "gan": 2632,
      "word": 2633,
      "ĠFor": 2634,
      "ĠëĶĶ": 2635,
      "point": 2636,
      "ìŁ": 2637,
      "Ġfe": 2638,
      "Ġë§ĲíĸĪëĭ¤": 2639,
      "?\"": 2640,
      "Ġhigh": 2641,
      "ouse": 2642,
      "Ġstyle": 2643,
      "Ġdoes": 2644,
      "Ġinte": 2645,
      "Ġsti": 2646,
      "ìŀĲê°Ģ": 2647,
      "ê²ĥ": 2648,
      "Ġtry": 2649,
      "Ġ__": 2650,
      "Ġíı¬íķ¨": 2651,
      "Ġë¯¸êµŃ": 2652,
      "Ġcor": 2653,
      "ĠEng": 2654,
      "Message": 2655,
      "Ġíİ¸": 2656,
      "Ġsur": 2657,
      "Ġexpect": 2658,
      "Ġfound": 2659,
      "Ġevery": 2660,
      "ìŁģ": 2661,
      "Ġë°Ŀíĺ": 2662,
      "Ġspecifi": 2663,
      "ëĦ¤": 2664,
      "ìĹ¼": 2665,
      "UT": 2666,
      "ëī": 2667,
      "Ġeach": 2668,
      "from": 2669,
      "Ġwo": 2670,
      "ĠëĲľëĭ¤": 2671,
      "etween": 2672,
      "ëĿ½": 2673,
      "lace": 2674,
      "ression": 2675,
      "ĠëĴ¤": 2676,
      "On": 2677,
      "content": 2678,
      "ëłĩ": 2679,
      "ĠìĿ´íĽĦ": 2680,
      "default": 2681,
      "ìĤ¬ë¥¼": 2682,
      "member": 2683,
      "ouble": 2684,
      "Ġ14": 2685,
      "bi": 2686,
      "Ġì§ĢìĽĲ": 2687,
      "tai": 2688,
      "ìķħ": 2689,
      "ĠìĭĿ": 2690,
      "Ġbeing": 2691,
      "names": 2692,
      "igned": 2693,
      "System": 2694,
      "ìķł": 2695,
      "ĠìĿĮ": 2696,
      "Ġstruct": 2697,
      "íĶĮ": 2698,
      "ìĿµ": 2699,
      "Ġmust": 2700,
      "ĠìķĬëĬĶ": 2701,
      "ock": 2702,
      "Ġcount": 2703,
      "velo": 2704,
      "Result": 2705,
      "Ġëıħ": 2706,
      "util": 2707,
      "tical": 2708,
      "Ġë§Įëĵ¤": 2709,
      "land": 2710,
      "rem": 2711,
      "LO": 2712,
      "Ġform": 2713,
      "iled": 2714,
      "Ġsame": 2715,
      "--------------------------------": 2716,
      "ĠìŀĪìĸ´": 2717,
      "aste": 2718,
      "dt": 2719,
      "ared": 2720,
      "Ġcheck": 2721,
      "ìĿ´íĦ°": 2722,
      "Ġtri": 2723,
      "Val": 2724,
      "define": 2725,
      "ê·¹": 2726,
      "Ġ17": 2727,
      "ì¸µ": 2728,
      "CC": 2729,
      "ë¡Ģ": 2730,
      ">(": 2731,
      "next": 2732,
      "Ġì¶©": 2733,
      "ils": 2734,
      "ê¸°ìĹĲ": 2735,
      "Ġê·¸ë¦¬ê³ł": 2736,
      "ì¶Ķ": 2737,
      "ëĭ¤ê³ł": 2738,
      "ende": 2739,
      "Ġed": 2740,
      "loat": 2741,
      "su": 2742,
      "lated": 2743,
      "css": 2744,
      "Ġê·ľ": 2745,
      "Ġlast": 2746,
      "ĠìĦľìļ¸": 2747,
      "Ġìĭľê°Ħ": 2748,
      "ĠìķĦìĿ´": 2749,
      "Ġ};": 2750,
      "Inter": 2751,
      "ì§Ģë¥¼": 2752,
      "vide": 2753,
      "ê·ľ": 2754,
      "Ġpat": 2755,
      "include": 2756,
      "Ġë²Ī": 2757,
      "ris": 2758,
      "į¼": 2759,
      "And": 2760,
      "Ġwell": 2761,
      "ê²¬": 2762,
      "Ġman": 2763,
      "ak": 2764,
      "ìª": 2765,
      "ë§Ĳ": 2766,
      "Ġíļ¨": 2767,
      "ET": 2768,
      "ëŀľ": 2769,
      "Ġcode": 2770,
      "Query": 2771,
      "íİĺ": 2772,
      "ded": 2773,
      "ING": 2774,
      "ĊĊĠĠĠĠĠĠĠĠĠĠĠĠ": 2775,
      "24": 2776,
      "Ġhelp": 2777,
      "Ġ]": 2778,
      "Ġconfig": 2779,
      "ĠQ": 2780,
      "num": 2781,
      "CH": 2782,
      "Ġì·¨": 2783,
      "ower": 2784,
      "Ġhere": 2785,
      "Up": 2786,
      "Ġfind": 2787,
      "jo": 2788,
      "Ġmade": 2789,
      "ĊĊĠĠĠĠĠĠĠĠĠĠĠĠĠ": 2790,
      "ê¸°ëıĦ": 2791,
      "fy": 2792,
      "ends": 2793,
      "Ġcreate": 2794,
      "ìī": 2795,
      "Ġì±Ħ": 2796,
      "ĠCa": 2797,
      "mall": 2798,
      "Ġsecond": 2799,
      "ë¹ĦìĬ¤": 2800,
      "ìŀ¥ìĿĢ": 2801,
      "ìłĳ": 2802,
      "Ġê´ĳ": 2803,
      "Ġprocess": 2804,
      "ĠAnd": 2805,
      "ean": 2806,
      "Ġìłķë³´": 2807,
      "Ġìĵ": 2808,
      "ister": 2809,
      "ìĦ±ìĿ´": 2810,
      "ĠìĪľ": 2811,
      "Ope": 2812,
      "nfo": 2813,
      "Att": 2814,
      "Ġ**": 2815,
      "Ġshow": 2816,
      "Ġnil": 2817,
      "Ġdiffer": 2818,
      "core": 2819,
      "IG": 2820,
      "ëī´": 2821,
      "Ġìĸ¸": 2822,
      "ìŀħëĭĪëĭ¤": 2823,
      "box": 2824,
      "Ġsupport": 2825,
      "ML": 2826,
      "reen": 2827,
      "Ġthou": 2828,
      "ĠYou": 2829,
      "Ġtarget": 2830,
      "čĊĠĠĠĠĠĠĠĠĠĠĠĠĠĠĠĠ": 2831,
      "event": 2832,
      "gt": 2833,
      "ED": 2834,
      "www": 2835,
      "Ġbetween": 2836,
      "Ġëĵ±ìĿĦ": 2837,
      "left": 2838,
      "Ġgu": 2839,
      "Ġbecause": 2840,
      "ë¿": 2841,
      "Ġdon": 2842,
      "ìª½": 2843,
      "ĠëĮĢíĳľ": 2844,
      "ped": 2845,
      "width": 2846,
      "ault": 2847,
      "Trans": 2848,
      "ì¿": 2849,
      "rag": 2850,
      "roller": 2851,
      "ëľ": 2852,
      "MA": 2853,
      "Ġì§Ħíĸī": 2854,
      "Ġve": 2855,
      "ĠíķŃ": 2856,
      "ĊĊĠĠĠĠĠĠĠĠĠĠĠĠĠĠ": 2857,
      "Ġë³ĳ": 2858,
      "ìĦľëĬĶ": 2859,
      "cope": 2860,
      "Ġë°ľìĥĿ": 2861,
      "ĠìĤ¬ìĹħ": 2862,
      "čĊĠĠĠĠĠĠĠĠĠĠĠĠĠĠĠĠĠ": 2863,
      "ele": 2864,
      "Ġê´Ģê³Ħ": 2865,
      "rated": 2866,
      "ĊĊĠĠĠĠĠĠĠĠĠĠĠĠĠĠĠ": 2867,
      "ëĭĺ": 2868,
      "Ġìĺ¨": 2869,
      "Manager": 2870,
      "ĠGe": 2871,
      "Ġpoint": 2872,
      "Ġdoc": 2873,
      "ye": 2874,
      "mod": 2875,
      "ĠNew": 2876,
      "Ġide": 2877,
      "íĺĳ": 2878,
      "ULL": 2879,
      "Ġrec": 2880,
      "Ġinformation": 2881,
      "Ġchild": 2882,
      "ett": 2883,
      ">&": 2884,
      "ĠShe": 2885,
      "=\"../../../../": 2886,
      "Ġsrc": 2887,
      "nel": 2888,
      "Is": 2889,
      "ected": 2890,
      "ëĵĿ": 2891,
      "each": 2892,
      "nnection": 2893,
      "ffset": 2894,
      "und": 2895,
      "Ġëª¨ëĳĲ": 2896,
      "Ġê±¸": 2897,
      "rop": 2898,
      "Ġgood": 2899,
      "Ġ13": 2900,
      "Ġëĭ¤ìĸĳ": 2901,
      "Ġì°¾": 2902,
      "Ġíķĺê³ł": 2903,
      "meri": 2904,
      "Ġmany": 2905,
      "ences": 2906,
      "work": 2907,
      "light": 2908,
      "Ġë¡ľ": 2909,
      "Ġê°ľìĿĺ": 2910,
      "ib": 2911,
      "Ġoptions": 2912,
      "Int": 2913,
      "xy": 2914,
      "Ġìłĳ": 2915,
      "ìķ¡": 2916,
      "Ġë§İìĿĢ": 2917,
      "parent": 2918,
      "ple": 2919,
      "ì¸ł": 2920,
      "```": 2921,
      "Ġfo": 2922,
      "80": 2923,
      "side": 2924,
      "Ġgene": 2925,
      "ĠìĤ¬íļĮ": 2926,
      "android": 2927,
      "40": 2928,
      "peri": 2929,
      "state": 2930,
      "Ġì¤Ħ": 2931,
      "web": 2932,
      "ìĸ´ë¡ľ": 2933,
      "ìŀ¥ìĿĦ": 2934,
      "Or": 2935,
      "Ġeven": 2936,
      "fix": 2937,
      "ì²ĺëŁ¼": 2938,
      "ĠìŀĪìĹĪëĭ¤": 2939,
      "Ġì¦Ŀê°Ģ": 2940,
      "Ġpi": 2941,
      "ĠìĦ¸ê³Ħ": 2942,
      "dition": 2943,
      "íķľêµŃ": 2944,
      "ĠìĻĦ": 2945,
      "Ġvery": 2946,
      "ëł¥ìĿĦ": 2947,
      "ible": 2948,
      "čĊĠĠĠĠĠĠĠĠĠĠĠĠĠĠĠĠĠĠ": 2949,
      "ìĿ´ëĿ¼ëĬĶ": 2950,
      "eters": 2951,
      "IS": 2952,
      "ë¨¸": 2953,
      "ĠìłķëıĦ": 2954,
      "tant": 2955,
      "Ġ25": 2956,
      "ëĲĺìĹĪëĭ¤": 2957,
      "Ġëª¨ëĵł": 2958,
      "Comm": 2959,
      "ste": 2960,
      "ĠGet": 2961,
      "ìĿ´ê³ł": 2962,
      "ĠAl": 2963,
      "čĊĠĠĠĠĠĠĠĠĠĠĠĠĠĠĠĠĠĠĠ": 2964,
      "ttr": 2965,
      "Dat": 2966,
      "ëħĢ": 2967,
      "ech": 2968,
      "================": 2969,
      "ĠSo": 2970,
      "ë¶Ī": 2971,
      "ì§Ģê³ł": 2972,
      "Color": 2973,
      "Client": 2974,
      "ithub": 2975,
      "ĠìĹĨëĭ¤": 2976,
      "head": 2977,
      "ars": 2978,
      "ĠSystem": 2979,
      "User": 2980,
      "Ġì¦": 2981,
      "nished": 2982,
      "Ġíģ°": 2983,
      "package": 2984,
      "context": 2985,
      "ĠBut": 2986,
      "label": 2987,
      "ê°Ŀ": 2988,
      "day": 2989,
      "Def": 2990,
      "Model": 2991,
      "info": 2992,
      ";&": 2993,
      "Property": 2994,
      "Ġinput": 2995,
      "Ġë°ĿíĺĶëĭ¤": 2996,
      "Ġpath": 2997,
      "Out": 2998,
      "cated": 2999,
      "ĠZ": 3000,
      "ĠìŀĪìĬµëĭĪëĭ¤": 3001,
      "Ġleft": 3002,
      "Ġbreak": 3003,
      "UN": 3004,
      "rue": 3005,
      "Ġìłľê³µ": 3006,
      "ĠÐ": 3007,
      "ìĿ´íĬ¸": 3008,
      "Ġê¶Į": 3009,
      "Ġinstance": 3010,
      "hip": 3011,
      "ĠëĪĪ": 3012,
      "Ġcolor": 3013,
      "bug": 3014,
      "ì§¸": 3015,
      "Ġìłķë¶Ģ": 3016,
      "db": 3017,
      "enti": 3018,
      "Count": 3019,
      "Table": 3020,
      "Ġì°½": 3021,
      "Ġbase": 3022,
      "Ġnext": 3023,
      "à¤": 3024,
      "Ġíĥľ": 3025,
      "rac": 3026,
      "ecu": 3027,
      "Ġì§Ī": 3028,
      "tit": 3029,
      "Dis": 3030,
      "23": 3031,
      "ë°±": 3032,
      "mic": 3033,
      "tils": 3034,
      "Ġprot": 3035,
      "Ġê¸°ìĹħ": 3036,
      "bers": 3037,
      "Ġíħ": 3038,
      "Ġthink": 3039,
      "ret": 3040,
      "ki": 3041,
      "Ġnode": 3042,
      "ë°Ľ": 3043,
      "ains": 3044,
      "MP": 3045,
      "rence": 3046,
      "ì¡Įëĭ¤": 3047,
      "ë´ī": 3048,
      "ĠJo": 3049,
      "uni": 3050,
      "ĠìĹĨëĬĶ": 3051,
      "nn": 3052,
      "google": 3053,
      "ëĲĺê³ł": 3054,
      "Ġref": 3055,
      "tn": 3056,
      "íķĻêµĲ": 3057,
      "cate": 3058,
      "ani": 3059,
      "valid": 3060,
      "Ġindex": 3061,
      "etwork": 3062,
      "over": 3063,
      "los": 3064,
      "Ġblock": 3065,
      "outh": 3066,
      "Ġet": 3067,
      "ĠëĿ¼": 3068,
      "eet": 3069,
      "perties": 3070,
      "Ġcontext": 3071,
      "Response": 3072,
      "llection": 3073,
      "Ext": 3074,
      "lib": 3075,
      "alog": 3076,
      "ĠíĨł": 3077,
      "Ġbool": 3078,
      "ìĥģìĿĦ": 3079,
      "ĠëĪĦ": 3080,
      "Ġíĺĳ": 3081,
      "Ġëĭ´": 3082,
      "tifi": 3083,
      "Ġêµ¬ìĦ±": 3084,
      "github": 3085,
      "urs": 3086,
      "Ġsystem": 3087,
      "false": 3088,
      "ists": 3089,
      "ì³Ĳ": 3090,
      "uage": 3091,
      "Ġsw": 3092,
      "TH": 3093,
      "rial": 3094,
      "max": 3095,
      "ë§ī": 3096,
      "Ġê¸°ìĪł": 3097,
      "ĠìĥģíĻ©": 3098,
      "ãĥ": 3099,
      "Ġitem": 3100,
      "íĨµëł¹": 3101,
      "option": 3102,
      "erial": 3103,
      "ntry": 3104,
      "ĠìłĪ": 3105,
      "hy": 3106,
      "vert": 3107,
      "ë¥ł": 3108,
      "Ġëĭ¤ìĿĮ": 3109,
      "ĠãĢ": 3110,
      "ìĭľê°Ħ": 3111,
      "Ġthing": 3112,
      "Ġact": 3113,
      "air": 3114,
      "ìĿ´ìĹĪëĭ¤": 3115,
      "Ġred": 3116,
      "Ġmuch": 3117,
      "Ġì¸¡": 3118,
      "lex": 3119,
      "cale": 3120,
      "method": 3121,
      "task": 3122,
      "Ġë²Ħ": 3123,
      "Write": 3124,
      "Ġgiven": 3125,
      "AB": 3126,
      "ê¸¸": 3127,
      "func": 3128,
      "DO": 3129,
      "But": 3130,
      "mpty": 3131,
      "php": 3132,
      "ê²¨": 3133,
      "pec": 3134,
      "lick": 3135,
      "60": 3136,
      "ĠëĺĲíķľ": 3137,
      "ources": 3138,
      "Ġsig": 3139,
      "using": 3140,
      "ĠìĤ¼": 3141,
      "less": 3142,
      "cept": 3143,
      "ĠìĿ´ìĸ´": 3144,
      "rity": 3145,
      "Ġë¶ģ": 3146,
      "Ġz": 3147,
      "erence": 3148,
      "ES": 3149,
      "ENT": 3150,
      "vity": 3151,
      "Ġcent": 3152,
      "ottom": 3153,
      "kes": 3154,
      "fact": 3155,
      "oute": 3156,
      "New": 3157,
      "options": 3158,
      "Ġì¤ĳêµŃ": 3159,
      "ëł¸": 3160,
      "itch": 3161,
      "Ġgroup": 3162,
      "Ġdec": 3163,
      "check": 3164,
      "Ġprovid": 3165,
      "Ð°": 3166,
      "Log": 3167,
      "static": 3168,
      "nother": 3169,
      "TD": 3170,
      "Ġìº": 3171,
      "nly": 3172,
      "ĠPar": 3173,
      "select": 3174,
      "ìľĦìĽĲ": 3175,
      "igi": 3176,
      "ìłķìĿĦ": 3177,
      "nth": 3178,
      "call": 3179,
      "Ġlife": 3180,
      "0000": 3181,
      "af": 3182,
      "NS": 3183,
      "Ġì¤Ģ": 3184,
      "pped": 3185,
      "tics": 3186,
      "itor": 3187,
      "ê·ł": 3188,
      "Ġop": 3189,
      "Ġcrea": 3190,
      "Ġyears": 3191,
      "Override": 3192,
      "Ġstd": 3193,
      "lobal": 3194,
      "ĊĊĊ": 3195,
      "ingle": 3196,
      "Not": 3197,
      "client": 3198,
      "ìį": 3199,
      "App": 3200,
      "](": 3201,
      ";</": 3202,
      "ports": 3203,
      "erm": 3204,
      "ason": 3205,
      "Ġce": 3206,
      "ê¹Ģ": 3207,
      "ender": 3208,
      "Method": 3209,
      "ì°½": 3210,
      "'m": 3211,
      "Date": 3212,
      "ĠíĪ¬ìĹ¬": 3213,
      "tab": 3214,
      "íħľ": 3215,
      "ules": 3216,
      "Ser": 3217,
      "lie": 3218,
      "Ġauto": 3219,
      "Ġë³´ê³ł": 3220,
      "Ġëħ¼": 3221,
      "ëĤ¬": 3222,
      "vices": 3223,
      "Ġdirect": 3224,
      "Ġlat": 3225,
      "Ġpage": 3226,
      "print": 3227,
      "ê¸°ê°Ģ": 3228,
      "ĠEnglish": 3229,
      "ìĩ": 3230,
      "ruct": 3231,
      "ually": 3232,
      "ë¡ľìļ´": 3233,
      "Ġêµ¬ì¡°": 3234,
      "Ġêµ°": 3235,
      "ĠRo": 3236,
      "alle": 3237,
      "sc": 3238,
      "Builder": 3239,
      "orth": 3240,
      "=\"../": 3241,
      "dir": 3242,
      "ëĬĲ": 3243,
      "duct": 3244,
      "This": 3245,
      "namespace": 3246,
      "Ġë©": 3247,
      "Ġì±ħ": 3248,
      "Ġperso": 3249,
      "Fact": 3250,
      "Ġph": 3251,
      "ols": 3252,
      "Ġë°©ë²ķ": 3253,
      "wer": 3254,
      "Ġsp": 3255,
      "Ġëĭ¤ìĸĳíķľ": 3256,
      "ĠíĮ¨": 3257,
      "From": 3258,
      "ross": 3259,
      "Ġday": 3260,
      "tta": 3261,
      "ĠëĨį": 3262,
      "ract": 3263,
      "Ð¾": 3264,
      "vider": 3265,
      "Ġwords": 3266,
      "ĠìĤ¬ìĭ¤": 3267,
      "ë²Ķ": 3268,
      "ilable": 3269,
      "ìĿ´ëĬĶ": 3270,
      "ĠStat": 3271,
      "ĠíĬ¸": 3272,
      "])": 3273,
      "Ġmessage": 3274,
      "model": 3275,
      "ĠìķĦëĭĪëĿ¼": 3276,
      "cei": 3277,
      "ough": 3278,
      "'r": 3279,
      "'re": 3280,
      "=\"#": 3281,
      "IL": 3282,
      "ĠëĮĢìĥģ": 3283,
      "ustom": 3284,
      "Ġê°ľë°ľ": 3285,
      "Ġíĸ¥": 3286,
      "Group": 3287,
      "tis": 3288,
      "ĠíĶĮ": 3289,
      "plication": 3290,
      "íķĺë©´ìĦľ": 3291,
      "Ġna": 3292,
      "rand": 3293,
      "Ġmem": 3294,
      "íķ©ëĭĪëĭ¤": 3295,
      "Ġtop": 3296,
      "ĠëĮĢíĨµëł¹": 3297,
      "nks": 3298,
      "ings": 3299,
      "Ġtable": 3300,
      "100": 3301,
      "ĠìĿ´ë¯¸": 3302,
      "ëĵ¤ìĹĲê²Į": 3303,
      "Ġversion": 3304,
      "nno": 3305,
      "Ġorder": 3306,
      "nnect": 3307,
      "Ġke": 3308,
      "Ġbuild": 3309,
      "tter": 3310,
      "ette": 3311,
      "Ġposition": 3312,
      "ersion": 3313,
      "Ġíķĺì§Ģë§Į": 3314,
      "ä¸": 3315,
      "Ġê°ĸ": 3316,
      "ĠìĬ¹": 3317,
      "ãĤ": 3318,
      "¨ìĸ´": 3319,
      "Ġview": 3320,
      "Input": 3321,
      "Ġë°±": 3322,
      "irtual": 3323,
      "Ġlocal": 3324,
      "ĠíĺĦìŀ¬": 3325,
      "Ġplace": 3326,
      "99": 3327,
      "ìĺ¬": 3328,
      "ĠëĦĺ": 3329,
      "Ra": 3330,
      "Ġíŀĺ": 3331,
      "ĠìĿ¼ë³¸": 3332,
      "amily": 3333,
      "Ġexample": 3334,
      "ĠêµĲìľ¡": 3335,
      "Reg": 3336,
      "Ġëį°ìĿ´íĦ°": 3337,
      "Ġ<<": 3338,
      "query": 3339,
      "ora": 3340,
      "ways": 3341,
      "Call": 3342,
      "ged": 3343,
      "icon": 3344,
      "ĠëĤł": 3345,
      "def": 3346,
      "Ġëį": 3347,
      "mar": 3348,
      "OT": 3349,
      "ks": 3350,
      "ware": 3351,
      "those": 3352,
      "Ġëĭ¤ìĭľ": 3353,
      "Ġstill": 3354,
      "equ": 3355,
      "down": 3356,
      "čĊĉĉ": 3357,
      "run": 3358,
      "_.": 3359,
      "All": 3360,
      "ë¦¬ê°Ģ": 3361,
      "AME": 3362,
      "Ġown": 3363,
      "ì¹¨": 3364,
      "Stream": 3365,
      "Ġmatch": 3366,
      "lice": 3367,
      "Ġboth": 3368,
      "ĠìĪ": 3369,
      "Ġëĵ±ìĿĺ": 3370,
      "ë¿Ĳ": 3371,
      "ëŁ½": 3372,
      "ude": 3373,
      "aster": 3374,
      "ua": 3375,
      "has": 3376,
      "Ġtake": 3377,
      "Ġ()": 3378,
      "ĠBe": 3379,
      "template": 3380,
      "ked": 3381,
      "Status": 3382,
      "ĠNo": 3383,
      "image": 3384,
      "ĠíĻĺìŀĲ": 3385,
      "Ġ50": 3386,
      "íĻĶë¥¼": 3387,
      "Ġmen": 3388,
      "ì²ł": 3389,
      "Ġallow": 3390,
      "ĠTo": 3391,
      "equest": 3392,
      "Ġthose": 3393,
      "íĿ¬": 3394,
      "request": 3395,
      "ĠíĻķìĿ¸": 3396,
      "ĠÃ": 3397,
      "ĠìĤ¬ìĿ´": 3398,
      "Ġlog": 3399,
      "íĥĦ": 3400,
      "Pri": 3401,
      "Ġri": 3402,
      "Ġsource": 3403,
      "ë²Į": 3404,
      "Content": 3405,
      "ttle": 3406,
      "Ġlet": 3407,
      "rnal": 3408,
      "Component": 3409,
      "Ġdocument": 3410,
      "lue": 3411,
      "ox": 3412,
      "Ġsy": 3413,
      "Ġold": 3414,
      "Ġmet": 3415,
      "Ġrow": 3416,
      "Ġdri": 3417,
      "Ġtur": 3418,
      "Ġhead": 3419,
      "Ġê¸¸": 3420,
      "Ġandroid": 3421,
      "ernal": 3422,
      "Ðµ": 3423,
      "34": 3424,
      "Ġtoo": 3425,
      "gram": 3426,
      "ìĦ¼": 3427,
      "ĠSet": 3428,
      "ì£¼ìĿĺ": 3429,
      "ìľ¼ëĤĺ": 3430,
      "lection": 3431,
      "66": 3432,
      "ëŀ¨": 3433,
      "IP": 3434,
      "tivity": 3435,
      "phe": 3436,
      "Ġì£": 3437,
      "pers": 3438,
      "ĊĉĠĠĠĠ": 3439,
      "ĠìĦ¤ëªħ": 3440,
      "ql": 3441,
      "lease": 3442,
      "Ġì¤ĳìļĶ": 3443,
      "arg": 3444,
      "server": 3445,
      "<!--": 3446,
      "AS": 3447,
      "ĠĠĊĠĠĠĠĠĠĠĠĠĠĠ": 3448,
      "arge": 3449,
      "ĠNULL": 3450,
      "Ġconti": 3451,
      "Ġlate": 3452,
      "čĊč": 3453,
      "ations": 3454,
      "Token": 3455,
      "Ġë¸Į": 3456,
      "ĠRes": 3457,
      "ê¼": 3458,
      "ĠDo": 3459,
      "button": 3460,
      "Ġgreat": 3461,
      "Ġì½": 3462,
      "ì°©": 3463,
      "Ġwar": 3464,
      "ĠìĦľë¹ĦìĬ¤": 3465,
      "args": 3466,
      "Ġì¡´": 3467,
      "Ġì»¤": 3468,
      "array": 3469,
      "Al": 3470,
      "mail": 3471,
      "((": 3472,
      "Ġì¹ľ": 3473,
      "Ġìĺģíĸ¥": 3474,
      "fir": 3475,
      "Ġfollowing": 3476,
      "ĠêµŃê°Ģ": 3477,
      "ĠAmeri": 3478,
      "Image": 3479,
      "Ġwithout": 3480,
      "Pos": 3481,
      "nger": 3482,
      "ê²Ģ": 3483,
      "Cell": 3484,
      "Ġava": 3485,
      "ĠëĤ´ìļ©": 3486,
      "element": 3487,
      "Ġvalues": 3488,
      "nnel": 3489,
      "Ġty": 3490,
      "Ġdifferent": 3491,
      "Ġë¶ĦìĦĿ": 3492,
      "ĠëĲł": 3493,
      "Ad": 3494,
      "ĠëĬĲ": 3495,
      "try": 3496,
      "Ġ24": 3497,
      "Ġmax": 3498,
      "xml": 3499,
      "íĺĪ": 3500,
      "attr": 3501,
      "sw": 3502,
      "ìĺģë¬¸": 3503,
      "End": 3504,
      "ĠĠĠĊĠĠĠĠĠĠĠĠĠĠĠ": 3505,
      "another": 3506,
      "Ġret": 3507,
      "chema": 3508,
      "Ġcalled": 3509,
      "gen": 3510,
      "hree": 3511,
      "cons": 3512,
      "Instance": 3513,
      "three": 3514,
      "âĢ¦": 3515,
      "Ġindi": 3516,
      "ream": 3517,
      "'d": 3518,
      "Ġ\"\"\"": 3519,
      "ĠìŀĪìĿĦ": 3520,
      "ĠIs": 3521,
      "Ġìķł": 3522,
      "para": 3523,
      "Ġresponse": 3524,
      "Ġ->": 3525,
      "nced": 3526,
      "27": 3527,
      "Ġaround": 3528,
      "cher": 3529,
      "Ġíıīê°Ģ": 3530,
      "hand": 3531,
      "Ġfil": 3532,
      "Ġê³³": 3533,
      "Ġworld": 3534,
      "Sy": 3535,
      "Ġboolean": 3536,
      "Block": 3537,
      "style": 3538,
      "Ċĉĉĉĉĉĉ": 3539,
      "OP": 3540,
      "âĢľ": 3541,
      "ëıĦë¥¼": 3542,
      "ĠíĸĪ": 3543,
      "Const": 3544,
      "ê¾": 3545,
      "Bar": 3546,
      "Ġsay": 3547,
      "page": 3548,
      ")-": 3549,
      "íķ´ìĦľ": 3550,
      "Ġremo": 3551,
      "lot": 3552,
      "lack": 3553,
      "author": 3554,
      "pende": 3555,
      "ĠĠĠĠĊĠĠĠĠĠĠĠĠĠĠĠ": 3556,
      "ara": 3557,
      "Ġreal": 3558,
      "DI": 3559,
      "wa": 3560,
      "ONT": 3561,
      "Ġhu": 3562,
      "ê¸°ëĬĶ": 3563,
      "Wh": 3564,
      "had": 3565,
      "Imp": 3566,
      "Options": 3567,
      "ĠëĬĺ": 3568,
      "ë¯Ģë¡ľ": 3569,
      "ocus": 3570,
      "pu": 3571,
      "Ġê·¸ëŁ¬ëĤĺ": 3572,
      "apt": 3573,
      "Ġba": 3574,
      "miss": 3575,
      "cket": 3576,
      "oud": 3577,
      "see": 3578,
      "ready": 3579,
      "ĠĠĊĠĠĠ": 3580,
      "Base": 3581,
      "Ġìĵ°": 3582,
      "null": 3583,
      "Ġimport": 3584,
      "search": 3585,
      "sy": 3586,
      "US": 3587,
      "sp": 3588,
      "Ġfact": 3589,
      "Ġaddress": 3590,
      "ĠêµŃë¯¼": 3591,
      "Di": 3592,
      "idget": 3593,
      "ìŀ¥ìĿ´": 3594,
      "EX": 3595,
      "Ġê·¸ëĬĶ": 3596,
      "tain": 3597,
      "ĠTra": 3598,
      "Ġanother": 3599,
      "Ġìļ´ìĺģ": 3600,
      "Be": 3601,
      "YPE": 3602,
      "ìĬ¤íħľ": 3603,
      "Ġ+=": 3604,
      "ê¸Ģ": 3605,
      "Ġimage": 3606,
      "nv": 3607,
      "write": 3608,
      "eight": 3609,
      "Ġside": 3610,
      "CE": 3611,
      "Ġìī": 3612,
      "orn": 3613,
      "adding": 3614,
      "ê³¡": 3615,
      "itial": 3616,
      "ĠThey": 3617,
      "ĠíĹĪ": 3618,
      "Ġâĸ": 3619,
      "lugin": 3620,
      "ĠĠĠĠĠĊĠĠĠĠĠĠĠĠĠĠĠ": 3621,
      "ĠêµŃëĤ´": 3622,
      "ĠìŀĪìľ¼ë©°": 3623,
      "Ġborder": 3624,
      "Ġê²½ìłľ": 3625,
      "illi": 3626,
      "Col": 3627,
      "ìį¨": 3628,
      "Ġcond": 3629,
      "Ġwidth": 3630,
      "Ġprodu": 3631,
      "ë²ł": 3632,
      "Lay": 3633,
      "Ġbackground": 3634,
      "Ġë³¼": 3635,
      "ntifi": 3636,
      "Ġìĸ¼": 3637,
      "orage": 3638,
      "come": 3639,
      "Do": 3640,
      "({": 3641,
      "íĬ¹": 3642,
      "Ġinv": 3643,
      "eme": 3644,
      "28": 3645,
      "Exp": 3646,
      "íĻķ": 3647,
      "íį¼": 3648,
      "frame": 3649,
      "Handler": 3650,
      "uss": 3651,
      "ëĭĮ": 3652,
      "ìľµ": 3653,
      "ìĹĲìĦľëıĦ": 3654,
      "Sub": 3655,
      "append": 3656,
      "Ġì¶ķ": 3657,
      "ug": 3658,
      "Source": 3659,
      "ìĬ¬": 3660,
      "with": 3661,
      "Ġsto": 3662,
      "Ġê¸°ë¡Ŀ": 3663,
      "Ġì²ľ": 3664,
      "ìĸµìĽĲ": 3665,
      "ĠìĽ": 3666,
      "Ġíģ´": 3667,
      "nged": 3668,
      "ethe": 3669,
      "70": 3670,
      "teg": 3671,
      "Ġoutput": 3672,
      "ìĭľìķĦ": 3673,
      "nage": 3674,
      "Ġë²ł": 3675,
      "Ġíķ´ëĭ¹": 3676,
      "ases": 3677,
      "ëŁ¬íķľ": 3678,
      "Ġì¶Ķê°Ģ": 3679,
      "ê·¸ëŀ¨": 3680,
      "Ġaction": 3681,
      "ìĹĶ": 3682,
      "ĠĠĠĠĠĠĊĠĠĠĠĠĠĠĠĠĠĠ": 3683,
      "ĠìłĦë¬¸": 3684,
      "ìĤ¬ê°Ģ": 3685,
      "Attribute": 3686,
      "ìŀĲë¥¼": 3687,
      "26": 3688,
      "ĠJa": 3689,
      "ĠPa": 3690,
      "Resource": 3691,
      "Line": 3692,
      "55": 3693,
      "Me": 3694,
      "ĠĠĠĠĠĠĠĊĠĠĠĠĠĠĠĠĠĠĠ": 3695,
      "ĠMar": 3696,
      "Buffer": 3697,
      "Ġnon": 3698,
      "owever": 3699,
      "Ġthree": 3700,
      "roll": 3701,
      "Ġmodel": 3702,
      "Ġear": 3703,
      "ìľ¼ë©´": 3704,
      "Ġduring": 3705,
      "ĠĠĠĠĠĠĠĠĊĠĠĠĠĠĠĠĠĠĠĠ": 3706,
      "ëħĲ": 3707,
      "íĮ¨": 3708,
      "ĠìĹ¬ëŁ¬": 3709,
      "ormal": 3710,
      "ift": 3711,
      "ìĤ´": 3712,
      "AP": 3713,
      "ì§ķ": 3714,
      "Ġsent": 3715,
      "ĠëĦ¤": 3716,
      "ì¹ľ": 3717,
      "[\"": 3718,
      "íļ¨": 3719,
      "Ġê³Ħíļį": 3720,
      "ìĿ´ë©°": 3721,
      "json": 3722,
      "Ġê²°ìłķ": 3723,
      "graph": 3724,
      "rict": 3725,
      "header": 3726,
      "Ġparent": 3727,
      "ffi": 3728,
      "bit": 3729,
      "ĽĪ": 3730,
      "odes": 3731,
      "Action": 3732,
      "Ġnever": 3733,
      "ìĤ¬ëĬĶ": 3734,
      "Ġlang": 3735,
      "finished": 3736,
      "adata": 3737,
      "ĊĉĠĠĠĠĠ": 3738,
      "Ġsup": 3739,
      "ë§ģ": 3740,
      "ĠìŀĪìĹĪ": 3741,
      "ĠLi": 3742,
      "êµ´": 3743,
      "mode": 3744,
      "Ġê¸°ì¤Ģ": 3745,
      "39": 3746,
      "tance": 3747,
      "cs": 3748,
      "Ġfeat": 3749,
      "ì¿ł": 3750,
      "Ġê·¸ëŁ°": 3751,
      "len": 3752,
      "Ġapp": 3753,
      "mages": 3754,
      "ĠëģĿ": 3755,
      "Ġhap": 3756,
      "height": 3757,
      "ainst": 3758,
      "Fa": 3759,
      "Ġmulti": 3760,
      "Ġëª¨ìĬµ": 3761,
      "abel": 3762,
      "EL": 3763,
      "ener": 3764,
      "ster": 3765,
      "nate": 3766,
      "ê°ĢëĬĶ": 3767,
      "ê¸°ìĹħ": 3768,
      "Ġclient": 3769,
      "ìĹĨ": 3770,
      "Ġmat": 3771,
      "ìĿ´ìĬ¤": 3772,
      "licy": 3773,
      "pea": 3774,
      "Ġcommand": 3775,
      "Ġpack": 3776,
      "ĠComp": 3777,
      "ÃŃ": 3778,
      "imple": 3779,
      "Ġselect": 3780,
      "Ġìĥģíĥľ": 3781,
      "Ġcou": 3782,
      "OS": 3783,
      "hape": 3784,
      "ìĭľíĤ¤": 3785,
      "ĠìĿĺë¯¸": 3786,
      "ĠìĿ´ë¥¼": 3787,
      "Ġcame": 3788,
      "ĠíĻľìļ©": 3789,
      "Ġwrite": 3790,
      "ortant": 3791,
      "Ġhome": 3792,
      "child": 3793,
      "ĠëıĻìķĪ": 3794,
      "Ġbody": 3795,
      "29": 3796,
      "aving": 3797,
      "FA": 3798,
      "Pr": 3799,
      "Ġìĭ¶": 3800,
      "Ġê¸°ìŀĲ": 3801,
      ".âĢĿ": 3802,
      "Run": 3803,
      "Ġwat": 3804,
      "Ġë°Ķë¡ľ": 3805,
      "ics": 3806,
      "usi": 3807,
      "Ġnames": 3808,
      "OL": 3809,
      "ĠëłĪ": 3810,
      "Default": 3811,
      "You": 3812,
      "Ġlittle": 3813,
      "Sta": 3814,
      "requ": 3815,
      "ording": 3816,
      "ëłĩê²Į": 3817,
      "){": 3818,
      "ĠĠĠĊĠĠĠ": 3819,
      "Ġproperty": 3820,
      "tin": 3821,
      "ìķĻ": 3822,
      "Ġë§İìĿ´": 3823,
      "Ġmight": 3824,
      "vious": 3825,
      "ë¦´": 3826,
      "ĠList": 3827,
      "Ġmove": 3828,
      "Ġservice": 3829,
      "íļĮìĿĺ": 3830,
      "ĠMo": 3831,
      "ension": 3832,
      "Factory": 3833,
      "ëĬĺ": 3834,
      "REF": 3835,
      "Ġë§ĪìĿĮ": 3836,
      "build": 3837,
      "CK": 3838,
      "Ġput": 3839,
      "Ġmap": 3840,
      "Ġdevelo": 3841,
      "Ð¸": 3842,
      "Ġrequire": 3843,
      "Ġfew": 3844,
      ".,": 3845,
      "Gene": 3846,
      "cle": 3847,
      "ìŀĪ": 3848,
      "Ġfri": 3849,
      "viron": 3850,
      "ĠìĿ´ë²Ī": 3851,
      "raph": 3852,
      "Function": 3853,
      "Ed": 3854,
      "ì¹ĺë¥¼": 3855,
      "Ġë¹ł": 3856,
      "Ġaccess": 3857,
      "Ġshort": 3858,
      "ptr": 3859,
      "acte": 3860,
      "ë¥´ë©´": 3861,
      "ĠíĬ¹íŀĪ": 3862,
      "ether": 3863,
      "Ġì²«": 3864,
      "unfinished": 3865,
      "ĠìĿ´ìľł": 3866,
      "Ġagain": 3867,
      "Ġfla": 3868,
      "'ll": 3869,
      "UE": 3870,
      "ĠĠĠĠĊĠĠĠ": 3871,
      "logy": 3872,
      "Ġrest": 3873,
      "ìĤ¬ìĹħ": 3874,
      "ĠĠĠĠĠĠĠĠĠĊĠĠĠĠĠĠĠĠĠĠĠ": 3875,
      "Doc": 3876,
      "flow": 3877,
      "lec": 3878,
      "Ġê¸°ëĬ¥": 3879,
      "ĠNone": 3880,
      "module": 3881,
      "Ġì²ł": 3882,
      "ëĦĲ": 3883,
      "btn": 3884,
      "Ġ198": 3885,
      "rep": 3886,
      "íķĺìĺĢ": 3887,
      "az": 3888,
      "Ġ40": 3889,
      "Ġë©´": 3890,
      "ëĵ¤ê³¼": 3891,
      "char": 3892,
      "Ġuntil": 3893,
      "property": 3894,
      "Nav": 3895,
      "Ġmai": 3896,
      "dl": 3897,
      "TO": 3898,
      "Ġgoing": 3899,
      "ĠíıŃ": 3900,
      "Ġdist": 3901,
      "current": 3902,
      "Ġdisplay": 3903,
      "mething": 3904,
      "Ġíļ¨ê³¼": 3905,
      "Ġ~": 3906,
      "ĠíĤ": 3907,
      "Ġappe": 3908,
      "Mem": 3909,
      "Ġpossi": 3910,
      "ĠíĻľëıĻ": 3911,
      "Ġagainst": 3912,
      "Ġbro": 3913,
      "ird": 3914,
      "Style": 3915,
      "ĠDa": 3916,
      "Ġëĳ": 3917,
      "Select": 3918,
      "Ġavailable": 3919,
      "ľ´": 3920,
      "Ġmod": 3921,
      "ĠìĿ´ëŁ°": 3922,
      "Ã³": 3923,
      "strong": 3924,
      "Version": 3925,
      "ĠĠĠĠĠĠĠĠĠĠĊĠĠĠĠĠĠĠĠĠĠĠ": 3926,
      "Ġëľ": 3927,
      "Ġalways": 3928,
      "push": 3929,
      "Ġëĵ±ìĿ´": 3930,
      "Ġchange": 3931,
      "struct": 3932,
      "ë°Ģ": 3933,
      "ìĿ´ì§Ģ": 3934,
      "Ġìŀ¡": 3935,
      "Frame": 3936,
      "init": 3937,
      "ĠìĿ¼ë°ĺ": 3938,
      "ndle": 3939,
      "ëŀľëĵľ": 3940,
      "HT": 3941,
      "rl": 3942,
      "bles": 3943,
      "Ġhttp": 3944,
      "ury": 3945,
      "ector": 3946,
      "Ġargument": 3947,
      "Window": 3948,
      "ĠíħĮ": 3949,
      "ix": 3950,
      "True": 3951,
      "Ġsk": 3952,
      "});": 3953,
      "Ġìłģìļ©": 3954,
      "ë¶Ģë¶Ħ": 3955,
      "Ġìĭ¤ìĭľ": 3956,
      "ured": 3957,
      "Ġrefer": 3958,
      "AG": 3959,
      "ë¦¬ìķĦ": 3960,
      "ĠTher": 3961,
      "ĠCha": 3962,
      "ners": 3963,
      "ĠĠĠĠĠĠĠĠĠĠĠĊĠĠĠĠĠĠĠĠĠĠĠ": 3964,
      "ify": 3965,
      "Command": 3966,
      "ributes": 3967,
      "ithe": 3968,
      "75": 3969,
      "ê²łëĭ¤": 3970,
      "Ġë§ī": 3971,
      "Ġjo": 3972,
      "ëĥĲ": 3973,
      "Ġsince": 3974,
      "Ġsuccess": 3975,
      "Ġmode": 3976,
      "*/": 3977,
      "ĠWhe": 3978,
      "ĠëĶ°ë¥¸": 3979,
      "tx": 3980,
      "ĠThere": 3981,
      "ĠObject": 3982,
      "chool": 3983,
      "bed": 3984,
      "nabled": 3985,
      "ĠìķĬê³ł": 3986,
      "Ġstra": 3987,
      "eed": 3988,
      "ious": 3989,
      "Ġwal": 3990,
      "ÑĤ": 3991,
      "Ġeff": 3992,
      "status": 3993,
      "nteger": 3994,
      "cke": 3995,
      "Ġdat": 3996,
      "ê°Ī": 3997,
      "istory": 3998,
      "efore": 3999,
      "cks": 4000,
      "ĠĠĠĠĠĠĠĠĠĠĠĠĊĠĠĠĠĠĠĠĠĠĠĠ": 4001,
      "rie": 4002,
      "If": 4003,
      "ATE": 4004,
      "ĠìłľíĴĪ": 4005,
      "ë¡ľëĤĺ": 4006,
      "ìĿ¸ìĿ´": 4007,
      "Ġpartic": 4008,
      "ë§ĮìĽĲ": 4009,
      "Ġoffi": 4010,
      "Ġì§Ģê¸Ī": 4011,
      "Ġdeta": 4012,
      "Ġìķ¼": 4013,
      "gress": 4014,
      "ëŀµ": 4015,
      "|--|--|": 4016,
      "Start": 4017,
      "Ġoperation": 4018,
      "Ġê¸ī": 4019,
      "Ġìĸ´ëĸ¤": 4020,
      "čĊĠĠĠĠĠĠĠĠĠĠĠĠĠĠĠĠĠĠĠĠ": 4021,
      "stand": 4022,
      "Ġë¨¹": 4023,
      "Ġexperi": 4024,
      "ngine": 4025,
      "Ġacc": 4026,
      "olution": 4027,
      "ìĭĿìĿĦ": 4028,
      "fini": 4029,
      "Ġì£½": 4030,
      "Task": 4031,
      "ither": 4032,
      "ĠAd": 4033,
      "ì´Ŀ": 4034,
      "Ġpresent": 4035,
      "Ġproject": 4036,
      "ĠLa": 4037,
      "Ġsomething": 4038,
      "ĠìĪĺëıĦ": 4039,
      "ë¡¯": 4040,
      "ecord": 4041,
      "Point": 4042,
      "Number": 4043,
      "ĠìĥĪë¡ľìļ´": 4044,
      "ĠIN": 4045,
      "ood": 4046,
      "íĮħ": 4047,
      "Ġimplement": 4048,
      "lus": 4049,
      "Ġcome": 4050,
      "lication": 4051,
      "íģ¼": 4052,
      "nges": 4053,
      "ĠÂ": 4054,
      "ĠìŀĲìĭłìĿĺ": 4055,
      "Ġ{@": 4056,
      "ĠìķĬìķĺëĭ¤": 4057,
      "atta": 4058,
      "Un": 4059,
      "35": 4060,
      "ĠìĿ´ëŁ¬íķľ": 4061,
      "ism": 4062,
      "ublish": 4063,
      "jav": 4064,
      "Ġwate": 4065,
      "Ġstand": 4066,
      "Ty": 4067,
      "vision": 4068,
      "lan": 4069,
      "Ġwindow": 4070,
      "ëł¥ìĿ´": 4071,
      "lations": 4072,
      "alth": 4073,
      "\"]": 4074,
      "Ġpost": 4075,
      "ĠKor": 4076,
      "45": 4077,
      "ìĤ¬ìĿĺ": 4078,
      "private": 4079,
      "ĠëĨĴìĿĢ": 4080,
      "ĠëĦĪ": 4081,
      "čĊĠĠĠĠĠĠĠĠĠĠĠĠĠĠĠĠĠĠĠĠĠ": 4082,
      "med": 4083,
      "čĊĉĉĉĉ": 4084,
      "eaders": 4085,
      "ìļ±": 4086,
      "Ġì°¸ìĹ¬": 4087,
      "Ġthrows": 4088,
      "Ġbond": 4089,
      "ety": 4090,
      "Ġcour": 4091,
      "Ġbook": 4092,
      "ital": 4093,
      "Create": 4094,
      "?<|": 4095,
      "resh": 4096,
      "cer": 4097,
      "ĠìķĬìĿĢ": 4098,
      "Ã¡": 4099,
      "older": 4100,
      "Mode": 4101,
      "Ġìµľê·¼": 4102,
      "Null": 4103,
      "gene": 4104,
      "TER": 4105,
      "pected": 4106,
      "ĠTest": 4107,
      "rowser": 4108,
      "elper": 4109,
      "Ĩį": 4110,
      "ëĩ": 4111,
      "local": 4112,
      "Ġìĭľìŀ¥": 4113,
      "VER": 4114,
      "Page": 4115,
      "Ġì¹ĺë£Į": 4116,
      "idat": 4117,
      "Ġë²Į": 4118,
      "Ġrange": 4119,
      "mt": 4120,
      "Ġbest": 4121,
      "ĠìĿĺìĽĲ": 4122,
      "ka": 4123,
      "Ġlight": 4124,
      "iable": 4125,
      "ì¼ľ": 4126,
      "En": 4127,
      "ĠëĤ®": 4128,
      "ĠPe": 4129,
      "'ve": 4130,
      "ìłķë³´": 4131,
      "endif": 4132,
      "pac": 4133,
      "hs": 4134,
      "HE": 4135,
      "LASS": 4136,
      "Ġwater": 4137,
      "ëıĦê°Ģ": 4138,
      "find": 4139,
      "navbar": 4140,
      "Ġê°Ī": 4141,
      "meta": 4142,
      "FI": 4143,
      "ìĿ¸ìĿĺ": 4144,
      "Ġincluding": 4145,
      "Ġgot": 4146,
      "obj": 4147,
      "Ġseem": 4148,
      "ored": 4149,
      "loy": 4150,
      "ĠBu": 4151,
      "ĠìķĮëł¤": 4152,
      "Ġmark": 4153,
      "ĠìŀĪê³ł": 4154,
      "Ġthought": 4155,
      "equal": 4156,
      "SP": 4157,
      "Ġocc": 4158,
      "ĠíĥĦ": 4159,
      "Ġë²Ķ": 4160,
      "Ġbased": 4161,
      "Ġsmall": 4162,
      "Row": 4163,
      "ãĨį": 4164,
      "Ġconce": 4165,
      "ê³³": 4166,
      "first": 4167,
      "prototype": 4168,
      "ĠìĺĪìłķ": 4169,
      "čĊĠĠĠĠĠĠĠĠĠĠĠĠĠĠĠĠĠĠĠĠĠĠ": 4170,
      "Equals": 4171,
      "Ġ((": 4172,
      "Ġê°ĻìĿ´": 4173,
      "Pre": 4174,
      "Ġinclude": 4175,
      "Ġìĸ»": 4176,
      "ĠAdd": 4177,
      "gat": 4178,
      "Ġorigi": 4179,
      "ĠìĿĢ": 4180,
      "ãİ": 4181,
      "layout": 4182,
      "position": 4183,
      "host": 4184,
      "ëĤĺëĬĶ": 4185,
      "case": 4186,
      "Check": 4187,
      "je": 4188,
      "etter": 4189,
      "parse": 4190,
      "ëĤ¬ëĭ¤": 4191,
      "Format": 4192,
      "kr": 4193,
      "ĠLo": 4194,
      "čĊĠĠĠĠĠĠĠĠĠĠĠĠĠĠĠĠĠĠĠĠĠĠĠ": 4195,
      "})": 4196,
      "ê¸´": 4197,
      "mark": 4198,
      "Ġload": 4199,
      "ĠìĿ´ë¦Ħ": 4200,
      "Ġì¦ī": 4201,
      "Ġwri": 4202,
      "ëĲĺì§Ģ": 4203,
      "way": 4204,
      "Controller": 4205,
      "project": 4206,
      "post": 4207,
      "Ġappro": 4208,
      "ĠìµľëĮĢ": 4209,
      "ëĿ¼ìĿ¸": 4210,
      "buf": 4211,
      "ascript": 4212,
      "${": 4213,
      "ĠìĿ´ìķ¼": 4214,
      "vironment": 4215,
      "brary": 4216,
      "ê¿": 4217,
      "ê³¨": 4218,
      "ĠíĺĪ": 4219,
      "ĠëĶ°ë¥´ë©´": 4220,
      "Ġmea": 4221,
      "service": 4222,
      "ĠìŀĪëĭ¤ëĬĶ": 4223,
      "ĠìłĦì²´": 4224,
      "Ġëĭ¹ìĭľ": 4225,
      "tech": 4226,
      "format": 4227,
      "UI": 4228,
      "Ġurl": 4229,
      "EE": 4230,
      "ational": 4231,
      "Ġtal": 4232,
      "ëį¸": 4233,
      "ìŀĲë¡ľ": 4234,
      "met": 4235,
      "neral": 4236,
      "ume": 4237,
      "ĠPo": 4238,
      "commo": 4239,
      "yes": 4240,
      "ĠìĿ¼ë¶Ģ": 4241,
      "uns": 4242,
      "UP": 4243,
      "Ċĉĉĉĉĉĉĉĉ": 4244,
      "SON": 4245,
      "Ġalready": 4246,
      "(&": 4247,
      "ëı¼": 4248,
      "Ġë³Ħ": 4249,
      "///": 4250,
      "geth": 4251,
      "ditional": 4252,
      "ĠíĽĦë³´": 4253,
      "rences": 4254,
      "book": 4255,
      "Ð½": 4256,
      "ï¼": 4257,
      "usiness": 4258,
      "90": 4259,
      "////////////////": 4260,
      "Ġques": 4261,
      "Ġmed": 4262,
      "versity": 4263,
      "ëĬĶëĭ¤": 4264,
      "Ġreally": 4265,
      "last": 4266,
      "erences": 4267,
      "Ã¤": 4268,
      "ĠCar": 4269,
      "Ġresource": 4270,
      "âĢĺ": 4271,
      "36": 4272,
      "gethe": 4273,
      "gether": 4274,
      "ê¾¸": 4275,
      "bottom": 4276,
      "Ġprotected": 4277,
      "Filter": 4278,
      "ntial": 4279,
      "Ġå": 4280,
      "urch": 4281,
      "description": 4282,
      "lip": 4283,
      "ĠíĻĺê²½": 4284,
      "Ġíİĺ": 4285,
      "ì°¬": 4286,
      "PRO": 4287,
      "active": 4288,
      "ìķķ": 4289,
      "ĠëĲľ": 4290,
      "ìļķ": 4291,
      "ĠíĻį": 4292,
      "ĠìĦłíĥĿ": 4293,
      "ump": 4294,
      "long": 4295,
      "ĠíĦ": 4296,
      "Ġcell": 4297,
      "ëł¸ëĭ¤": 4298,
      "ĠíķĻìĥĿ": 4299,
      "Ġê³¨": 4300,
      "NO": 4301,
      "rable": 4302,
      "Ġì§ĢëĤľíķ´": 4303,
      "Link": 4304,
      "ë¦¬ìĹĲ": 4305,
      "Con": 4306,
      "ĠìĥĿìĤ°": 4307,
      "Ġopen": 4308,
      "Ġë¬¸íĻĶ": 4309,
      "Ġmodule": 4310,
      "Ġpres": 4311,
      "ĩ´": 4312,
      "ited": 4313,
      "font": 4314,
      "ĠìķĪìłĦ": 4315,
      "ĠMi": 4316,
      "ront": 4317,
      "cast": 4318,
      "ABLE": 4319,
      "Ġclear": 4320,
      "img": 4321,
      "êµĲìľ¡": 4322,
      "izer": 4323,
      "oot": 4324,
      "Ġpower": 4325,
      "Ġì²ĺìĿĮ": 4326,
      "pon": 4327,
      "Ġì§ģìłĳ": 4328,
      "ĠUni": 4329,
      "ĠíĻ©": 4330,
      "ĠëķĮë¬¸ìĿ´ëĭ¤": 4331,
      "ëĲĺìĹĪ": 4332,
      "Ġë¶Ģë¶Ħ": 4333,
      "Ġvo": 4334,
      "Ġfar": 4335,
      "container": 4336,
      "icense": 4337,
      "Ġwithi": 4338,
      "itt": 4339,
      "Ġwithin": 4340,
      "ier": 4341,
      "Ġheight": 4342,
      "Ġìĥģê¸°": 4343,
      "gu": 4344,
      "ì¹ĺëĬĶ": 4345,
      "OD": 4346,
      "dle": 4347,
      "Listener": 4348,
      "nner": 4349,
      "Ġdisc": 4350,
      "Ġaway": 4351,
      "At": 4352,
      "anno": 4353,
      "whe": 4354,
      "Child": 4355,
      "ì¶©": 4356,
      "inst": 4357,
      "ĠìĿ´ëĬĶ": 4358,
      "match": 4359,
      "ëĭµ": 4360,
      "Ġnum": 4361,
      "vern": 4362,
      "Ġë³´ìĹ¬": 4363,
      "FONT": 4364,
      "Ġoption": 4365,
      "ndefined": 4366,
      "ì»¤": 4367,
      "íģ´": 4368,
      "ê½": 4369,
      "Ġage": 4370,
      "íĮĢ": 4371,
      "Ġsure": 4372,
      "Ġcatch": 4373,
      "Tag": 4374,
      "idate": 4375,
      "ĠAn": 4376,
      "ĠCont": 4377,
      "hn": 4378,
      "IM": 4379,
      "ories": 4380,
      "Ġê·¹": 4381,
      "wi": 4382,
      "Pe": 4383,
      "ëıĮ": 4384,
      "íĸĪëįĺ": 4385,
      "Ġmus": 4386,
      "sg": 4387,
      "update": 4388,
      "ê°Ģì§Ģ": 4389,
      "Label": 4390,
      "Ġìµľê³ł": 4391,
      "ë¦¬ìĬ¤": 4392,
      "Ġlength": 4393,
      "Ġ21": 4394,
      "Ġins": 4395,
      "Ġë§Įëĵ¤ìĸ´": 4396,
      "íĥĪ": 4397,
      "pons": 4398,
      "Read": 4399,
      "Ġrecei": 4400,
      "ìĻķ": 4401,
      "ĊĊĉĉ": 4402,
      "BU": 4403,
      "Ġdone": 4404,
      "78": 4405,
      "ëĿ¼ëıĦ": 4406,
      "menu": 4407,
      "\".": 4408,
      "mbol": 4409,
      "44": 4410,
      "Ġcallback": 4411,
      "Ġì¤ĳìĭ¬": 4412,
      "thon": 4413,
      "GL": 4414,
      "ĠWhen": 4415,
      "Ġstory": 4416,
      "used": 4417,
      "dio": 4418,
      "Ġcer": 4419,
      "now": 4420,
      ")(": 4421,
      "ĠPri": 4422,
      "38": 4423,
      "ĠìĭľìĬ¤íħľ": 4424,
      "tice": 4425,
      "nting": 4426,
      "pping": 4427,
      "Ġexpected": 4428,
      "Ġsit": 4429,
      "ĠìŀĪëıĦë¡Ŀ": 4430,
      "zo": 4431,
      "AM": 4432,
      "ĠInd": 4433,
      "remove": 4434,
      "Ġìĸ´ëł¤": 4435,
      "Ġ!==": 4436,
      "Ġprint": 4437,
      "eek": 4438,
      "ĠComm": 4439,
      "ĠSa": 4440,
      "Ġtotal": 4441,
      "Loc": 4442,
      "anal": 4443,
      "verse": 4444,
      "rage": 4445,
      "Ġê°ĲìĨĮ": 4446,
      "ĠOn": 4447,
      "Web": 4448,
      "}}": 4449,
      "Ġ($": 4450,
      "Ġì£¼ìļĶ": 4451,
      "tia": 4452,
      "Ġì¡°ìĤ¬": 4453,
      "ê¸°ê´Ģ": 4454,
      "Ġê¼": 4455,
      "Length": 4456,
      "Ġëĸł": 4457,
      "hread": 4458,
      "ìłľë¡ľ": 4459,
      "Ġfiles": 4460,
      "ëĿ¼ìĿ´": 4461,
      "ouch": 4462,
      "ĠíĤ¤": 4463,
      ">>": 4464,
      "Ġrequired": 4465,
      "Output": 4466,
      "ĠíĪ¬ìŀĲ": 4467,
      "lin": 4468,
      "What": 4469,
      "Ġë¬": 4470,
      "Ob": 4471,
      "Ġobj": 4472,
      "gy": 4473,
      "params": 4474,
      "ria": 4475,
      "ards": 4476,
      "Ġì¡´ìŀ¬": 4477,
      "Ġlater": 4478,
      "Ġtimes": 4479,
      "semb": 4480,
      "\").": 4481,
      "ĠìĪĺì¤Ģ": 4482,
      "Ġdescri": 4483,
      "cker": 4484,
      "pond": 4485,
      "Ġë°ľíĳľ": 4486,
      "Ac": 4487,
      "URL": 4488,
      "response": 4489,
      "section": 4490,
      "íĺ¼": 4491,
      "Ġdidn": 4492,
      "ë¦Ń": 4493,
      "Ġcri": 4494,
      "Ġsuper": 4495,
      "Ġrel": 4496,
      "Ġthings": 4497,
      "acter": 4498,
      "SC": 4499,
      "ê¸°ë¡ľ": 4500,
      "Ġ[]": 4501,
      "Ġuni": 4502,
      "Ġserver": 4503,
      "ÑĢ": 4504,
      "rew": 4505,
      "iso": 4506,
      "Ġê·¸ê²ĥ": 4507,
      "Ġkeep": 4508,
      "ëªħìĿĺ": 4509,
      "Ġfamily": 4510,
      "Ġì¶Ķì§Ħ": 4511,
      "ìĿ¸ëĭ¤": 4512,
      "display": 4513,
      "Var": 4514,
      "Ġuns": 4515,
      "Ġextends": 4516,
      "TP": 4517,
      "sk": 4518,
      "Ġìŀł": 4519,
      "ĠUnit": 4520,
      "number": 4521,
      "Ġì¢ĭìĿĢ": 4522,
      "olve": 4523,
      "lit": 4524,
      "Ġcontrol": 4525,
      "íĨ": 4526,
      "vation": 4527,
      "ìĪĺë¥¼": 4528,
      "ient": 4529,
      "ĠëĮĢë¶Ģë¶Ħ": 4530,
      "une": 4531,
      "Ġë¨¸": 4532,
      "ìľĦë¥¼": 4533,
      "eq": 4534,
      "ìķĶ": 4535,
      "Ġê·¸ëŀĺ": 4536,
      "pc": 4537,
      "ĠíĶĦë¡ľê·¸ëŀ¨": 4538,
      "ĠìĿ´ë£¨": 4539,
      "ĠMe": 4540,
      "Ġìĺ¬íķ´": 4541,
      "urt": 4542,
      "ĠLe": 4543,
      "iler": 4544,
      "nary": 4545,
      "Ġê°Ģì§Ģ": 4546,
      "ĠìĿĳ": 4547,
      "ĠìĿĺíķ´": 4548,
      "uto": 4549,
      "íĺģ": 4550,
      "Ġê³¼ìłķ": 4551,
      "javascript": 4552,
      "Ġincr": 4553,
      "Ġëª¸": 4554,
      "++)": 4555,
      "ftware": 4556,
      "Ġìłķì¹ĺ": 4557,
      "Ġfull": 4558,
      "thread": 4559,
      "48": 4560,
      "ĠíĻĶíķĻ": 4561,
      "ĠíĻķëĮĢ": 4562,
      "ì§Ħëĭ¤": 4563,
      "ìĹ°êµ¬": 4564,
      "Auth": 4565,
      "ìĬĪ": 4566,
      "Ġmolec": 4567,
      "arning": 4568,
      "ì§ĢìĹŃ": 4569,
      "Ġ28": 4570,
      "SA": 4571,
      "Ġê´Ģë¦¬": 4572,
      "lative": 4573,
      "íĦ´": 4574,
      "ëĤ¸": 4575,
      "Ġë¸Ķ": 4576,
      "ìĻĶëĭ¤": 4577,
      "Button": 4578,
      "ural": 4579,
      "Met": 4580,
      "\"),": 4581,
      "ours": 4582,
      "Ġíĺ¼": 4583,
      "tifact": 4584,
      "Ġmargin": 4585,
      "Ġinitial": 4586,
      "isting": 4587,
      "Ġë³ĢíĻĶ": 4588,
      "uc": 4589,
      "Ġstructure": 4590,
      "ĠAPI": 4591,
      "component": 4592,
      "ticle": 4593,
      "Ġproble": 4594,
      "filter": 4595,
      "ëĪĦ": 4596,
      "ĠìĹĨìĿ´": 4597,
      "Ġincre": 4598,
      "---": 4599,
      "ĊĠĠĠĠĊĠĠĠ": 4600,
      "ĠëıĮìķĦ": 4601,
      "Ġê°ľìĿ¸": 4602,
      "ĠìľĦì¹ĺ": 4603,
      "icro": 4604,
      "ĊĉĠĠĠĠĠĠ": 4605,
      "luster": 4606,
      "ructor": 4607,
      "ife": 4608,
      "íķĺì§Ģë§Į": 4609,
      "Ġmain": 4610,
      "ìļ´ëį°": 4611,
      "Ġfour": 4612,
      "ìĭľìĹĲ": 4613,
      "%)": 4614,
      "UM": 4615,
      "ERT": 4616,
      "ĠDes": 4617,
      "nue": 4618,
      "05": 4619,
      "pose": 4620,
      "png": 4621,
      "Ġspecified": 4622,
      "rect": 4623,
      "Server": 4624,
      "Ġ22": 4625,
      "Ġë§¤ìļ°": 4626,
      "ìĦ¼íĦ°": 4627,
      "dev": 4628,
      "instance": 4629,
      "ì¹Ļ": 4630,
      "ĵĴ": 4631,
      "illa": 4632,
      "close": 4633,
      "ested": 4634,
      "Ġelect": 4635,
      "âĸ": 4636,
      "team": 4637,
      "Ġorgan": 4638,
      "ĠìĻķ": 4639,
      "Char": 4640,
      "Ġlevel": 4641,
      "íĤ¬": 4642,
      "Ġleast": 4643,
      "bility": 4644,
      "Ġnear": 4645,
      "Dec": 4646,
      "Ġkind": 4647,
      "\\\\": 4648,
      "std": 4649,
      "ws": 4650,
      "Cache": 4651,
      "uture": 4652,
      "etermi": 4653,
      "ĠKorean": 4654,
      "ĠAmerican": 4655,
      "mem": 4656,
      "Ġì°¾ìķĦ": 4657,
      "<?": 4658,
      "ìłľë¥¼": 4659,
      "alf": 4660,
      "gins": 4661,
      "ë£¹": 4662,
      "abled": 4663,
      "ì£¼ëĬĶ": 4664,
      "77": 4665,
      "Ġ23": 4666,
      "fla": 4667,
      "Ġìķħ": 4668,
      "Ġupdate": 4669,
      "Ġdouble": 4670,
      "Ġê°ģê°ģ": 4671,
      "ĠëĤľ": 4672,
      "Names": 4673,
      "Ġformat": 4674,
      "Ġtech": 4675,
      "Ġê³łëł¤": 4676,
      "gger": 4677,
      "kit": 4678,
      "yer": 4679,
      "output": 4680,
      "ìĭŃ": 4681,
      "ĠìļĶêµ¬": 4682,
      "returns": 4683,
      "ĠEX": 4684,
      "plit": 4685,
      "ìĿ´ìĹĪ": 4686,
      "Ġlarge": 4687,
      "TYPE": 4688,
      "eer": 4689,
      "ëłĮ": 4690,
      "Ġlabel": 4691,
      "Ġê¸°ëĮĢ": 4692,
      "Ġ<!--": 4693,
      "CON": 4694,
      "Ġeas": 4695,
      "Ġcopy": 4696,
      "ĠíıĲ": 4697,
      "forma": 4698,
      "Ġê²ĮìŀĦ": 4699,
      "Ġsingle": 4700,
      "Unit": 4701,
      "process": 4702,
      "ounds": 4703,
      "Ġair": 4704,
      "Address": 4705,
      "stract": 4706,
      "ial": 4707,
      "Ġport": 4708,
      "Ġìłķì±ħ": 4709,
      "ĊĉĠĠĠĠĠĠĠ": 4710,
      "ined": 4711,
      "istry": 4712,
      "ging": 4713,
      "Ġìľłì§Ģ": 4714,
      "Update": 4715,
      "bind": 4716,
      "ERR": 4717,
      "Ġstatus": 4718,
      "Bundle": 4719,
      "Ġtogether": 4720,
      "ĠëĲĺëĬĶ": 4721,
      "ĠìĹ°ê²°": 4722,
      "sembly": 4723,
      "else": 4724,
      "Ġ26": 4725,
      "ĠHer": 4726,
      "Offset": 4727,
      "Ġìŀ¬ë°°": 4728,
      "').": 4729,
      "ķĦ": 4730,
      "DF": 4731,
      "Layout": 4732,
      "ĠìĽĶ": 4733,
      "íķĦ": 4734,
      "Ġê´Ģíķľ": 4735,
      "ntifie": 4736,
      "quence": 4737,
      "range": 4738,
      "Ġë°ĽìķĦ": 4739,
      "ntifier": 4740,
      "finition": 4741,
      "pen": 4742,
      "ĠFra": 4743,
      "ĠHT": 4744,
      "Ġpossible": 4745,
      "ì¹Ń": 4746,
      "ĠíĶ¼íķ´": 4747,
      "Ġlimit": 4748,
      "Ġì§ĢìĨį": 4749,
      "ĠìĤ°ìĹħ": 4750,
      "ider": 4751,
      "uro": 4752,
      "matic": 4753,
      "Ġfont": 4754,
      "ĠìºĲ": 4755,
      "Ġless": 4756,
      "ĠAt": 4757,
      "tag": 4758,
      "asic": 4759,
      "Ġcl": 4760,
      "ĠChi": 4761,
      "Ġonce": 4762,
      "omen": 4763,
      "Ġtask": 4764,
      "íķľêµŃìĸ´ë¡ľ": 4765,
      "DB": 4766,
      "Ġíĭ": 4767,
      "ĠìĤ¬ê±´": 4768,
      "latform": 4769,
      "########": 4770,
      "Ġê³µê²©": 4771,
      "ëĤĺëĿ¼": 4772,
      "lid": 4773,
      "ĠëıĦìĭľ": 4774,
      "unk": 4775,
      "Ġê¸Ģ": 4776,
      "ung": 4777,
      "offset": 4778,
      "ĠĠĊĠĠĠĠĠĠĠ": 4779,
      "ĠìĹ¬ìĦ±": 4780,
      "Ġsearch": 4781,
      "Box": 4782,
      "(_": 4783,
      "ants": 4784,
      "IZ": 4785,
      "ìłĲìĿĦ": 4786,
      "Temp": 4787,
      "ĠìĺģíĻĶ": 4788,
      "Ġfeel": 4789,
      "earch": 4790,
      "Ġê³ĦìĨį": 4791,
      "ĠInter": 4792,
      "Ġì¹¨": 4793,
      "Ġë¹ĦêµĲ": 4794,
      "unity": 4795,
      "02": 4796,
      "oop": 4797,
      "ê²°íķ©": 4798,
      "Ġfr": 4799,
      "tell": 4800,
      "Ġapplication": 4801,
      "gate": 4802,
      "pass": 4803,
      "Ġdate": 4804,
      "only": 4805,
      "ìĤ¼": 4806,
      "ium": 4807,
      "Inst": 4808,
      "Ġele": 4809,
      "ĠìľĦíĹĺ": 4810,
      "ĠHREF": 4811,
      "Ġê°Ģê²©": 4812,
      "Ġbetter": 4813,
      "Ġê°Ļëĭ¤": 4814,
      "Ġrepresent": 4815,
      "Ġê·Ģ": 4816,
      "ë³¼": 4817,
      "ìĿ´ìĸ´": 4818,
      "amples": 4819,
      "Provider": 4820,
      "Ġho": 4821,
      "Ġë°Ģ": 4822,
      "Ġknown": 4823,
      "ĠìķĦëĭĮ": 4824,
      "Ġlove": 4825,
      "ĠID": 4826,
      "Width": 4827,
      "Ġsever": 4828,
      "xed": 4829,
      "ĊĊĠĠĠĠĠĠĠĠĠĠĠĠĠĠĠĠ": 4830,
      "Ġdescription": 4831,
      "ìĪĺëĬĶ": 4832,
      "ĠìĿ¸íĦ°": 4833,
      "Ġchildr": 4834,
      "ë¥´ëĬĶ": 4835,
      "Ġfree": 4836,
      "íıŃ": 4837,
      "mg": 4838,
      "loc": 4839,
      "ĠìĹĦ": 4840,
      "Ġê²½ê¸°": 4841,
      "ìĸ´ëĤĺ": 4842,
      "Ġchildre": 4843,
      "Ġchildren": 4844,
      "íļĮë¥¼": 4845,
      "atom": 4846,
      "NAME": 4847,
      "fs": 4848,
      "Ġtook": 4849,
      "irection": 4850,
      "ision": 4851,
      "Ġdevice": 4852,
      "ìĪĺê°Ģ": 4853,
      "pha": 4854,
      "ëªħìĿĦ": 4855,
      "ĠìķĬëĬĶëĭ¤": 4856,
      "Ġë¬´ëĭ¨": 4857,
      "31": 4858,
      "ĠìĤ¬ëŀĳ": 4859,
      "ĠCLASS": 4860,
      "etch": 4861,
      "ê¶ģ": 4862,
      "ĊĊĠĠĠĠĠĠĠĠĠĠĠĠĠĠĠĠĠ": 4863,
      "stream": 4864,
      "ìĥĪ": 4865,
      "olume": 4866,
      "entry": 4867,
      "exp": 4868,
      "spe": 4869,
      "Url": 4870,
      "idden": 4871,
      "********************************": 4872,
      "ëıĦë¡ľ": 4873,
      "íĦ¸": 4874,
      "]);": 4875,
      "ĠArray": 4876,
      "cy": 4877,
      "Ġê°Ģìļ´ëį°": 4878,
      "Ġface": 4879,
      "unit": 4880,
      "Ġlanguage": 4881,
      "Ġnone": 4882,
      ":</": 4883,
      "Ð¾Ð": 4884,
      "ĠíĮĲë§¤": 4885,
      "Last": 4886,
      "Ġëª°": 4887,
      "Ġ27": 4888,
      "tim": 4889,
      "íĽĪ": 4890,
      "Mi": 4891,
      "Ġatta": 4892,
      "ìŀ¡": 4893,
      "ë¬¸íĻĶ": 4894,
      "ĠLicense": 4895,
      "car": 4896,
      "37": 4897,
      "ìĿ´ê°Ģ": 4898,
      "ìĿĮìĿĦ": 4899,
      "%,": 4900,
      "heme": 4901,
      "Ġhouse": 4902,
      "Ñģ": 4903,
      "ordi": 4904,
      "ĠFi": 4905,
      "ĠĠĠĊĠĠĠĠĠĠĠ": 4906,
      "Ġargs": 4907,
      "Ġsm": 4908,
      "ë¬¼ìĿĦ": 4909,
      "uck": 4910,
      "ëĵľëĬĶ": 4911,
      "Ġlen": 4912,
      "board": 4913,
      "Ġemp": 4914,
      "íĸĪê³ł": 4915,
      "Ġë¿Ĳ": 4916,
      "ĠStr": 4917,
      "ĠëĮĢíķĻ": 4918,
      "roups": 4919,
      "ethyl": 4920,
      "ChI": 4921,
      "čĊĉĉĉ": 4922,
      "rapper": 4923,
      "ĠëĲĺìĹĪëĭ¤": 4924,
      "Ġalt": 4925,
      "ĠClass": 4926,
      "reference": 4927,
      "IO": 4928,
      "ĠInChI": 4929,
      "Ġemb": 4930,
      "Ġhold": 4931,
      "Ġabove": 4932,
      "chedule": 4933,
      "Ġdra": 4934,
      "Ġuint": 4935,
      "ND": 4936,
      "ĠìĿ¸ê°Ħ": 4937,
      "Ġcontains": 4938,
      "íħĶ": 4939,
      "nown": 4940,
      "ĠGL": 4941,
      "tification": 4942,
      "Ġê²½íĹĺ": 4943,
      "Ġtell": 4944,
      "ëģ¼": 4945,
      "Ġê¸°ì¡´": 4946,
      "ĠëĬ¥": 4947,
      "COL": 4948,
      "uint": 4949,
      "times": 4950,
      "theme": 4951,
      "ĠìĿ´ëĤł": 4952,
      "Ġpay": 4953,
      "ĠìĦ¤ì¹ĺ": 4954,
      "Ġê·¸ìĿĺ": 4955,
      "Configuration": 4956,
      "ë¶ĢëĬĶ": 4957,
      "Ġsend": 4958,
      "65": 4959,
      "ĠĠĠĠĊĠĠĠĠĠĠĠ": 4960,
      "Ġwent": 4961,
      "lesh": 4962,
      "Ġìĺģíĸ¥ìĿĦ": 4963,
      "show": 4964,
      "Ġlead": 4965,
      "attern": 4966,
      "Ġë§Īëł¨": 4967,
      "imum": 4968,
      "Ġë¶Ħìķ¼": 4969,
      "ĊĊĠĠĠĠĠĠĠĠĠĠĠĠĠĠĠĠĠĠ": 4970,
      "Ġinternal": 4971,
      "Ġìħ": 4972,
      "Ġans": 4973,
      "amed": 4974,
      "require": 4975,
      "uring": 4976,
      "mate": 4977,
      "That": 4978,
      "Ġbar": 4979,
      "ĊĊĠĠĠĠĠĠĠĠĠĠĠĠĠĠĠĠĠĠĠ": 4980,
      "ose": 4981,
      "Ġê³łê°Ŀ": 4982,
      "ì§Ģê°Ģ": 4983,
      "Ġcomponent": 4984,
      "»ê²Į": 4985,
      "íĤ¨": 4986,
      "ĠRa": 4987,
      "Ġ;": 4988,
      "ëī´ìĬ¤": 4989,
      "Back": 4990,
      "Ġê´Ģìĭ¬": 4991,
      "ìĭľìŀ¥": 4992,
      "ried": 4993,
      ":\"": 4994,
      "arm": 4995,
      "ëªħìĿ´": 4996,
      "utes": 4997,
      "usto": 4998,
      "Ġgive": 4999,
      "ìĥģìĿ´": 5000,
      "ìĹĩ": 5001,
      "ë§ĪíĬ¸": 5002,
      "ised": 5003,
      "ìĽĲìĿĦ": 5004,
      "Types": 5005,
      "Ġarea": 5006,
      "ê´´": 5007,
      "ê´Ģê³Ħ": 5008,
      "jor": 5009,
      "Ġinterface": 5010,
      "window": 5011,
      "Ġtemp": 5012,
      "PC": 5013,
      "íĺľ": 5014,
      "íı°": 5015,
      "Whe": 5016,
      "ëĨį": 5017,
      "Target": 5018,
      "ĠìķĶ": 5019,
      "ì¦Į": 5020,
      "elt": 5021,
      "pendency": 5022,
      "por": 5023,
      "Ġquery": 5024,
      "coding": 5025,
      "!\"": 5026,
      "Ġwhether": 5027,
      "Ġstep": 5028,
      "uce": 5029,
      "ura": 5030,
      "ĠìĪĺíĸī": 5031,
      "root": 5032,
      "ĠìĹŃìĭľ": 5033,
      "Ġhard": 5034,
      "ĠìĦ±ê³µ": 5035,
      "ëįķ": 5036,
      "ĠìĹŃíķł": 5037,
      "ocia": 5038,
      "Container": 5039,
      "08": 5040,
      "First": 5041,
      "Ġíķµ": 5042,
      "íĺĢ": 5043,
      "Ġimportant": 5044,
      "change": 5045,
      "ĠíĺķìĦ±": 5046,
      "ĠìĿ´ìĹĲ": 5047,
      "Ġclose": 5048,
      "LI": 5049,
      "ales": 5050,
      "ali": 5051,
      "Ġì½Ķë¡ľëĤĺ": 5052,
      "Ġdevelop": 5053,
      "ley": 5054,
      "Ve": 5055,
      "Ġcondition": 5056,
      "Ġprovide": 5057,
      "ĠìĿ´íķ´": 5058,
      "ining": 5059,
      "hr": 5060,
      "soft": 5061,
      "ĠëĤĺëĬĶ": 5062,
      "MS": 5063,
      "Ġmonth": 5064,
      "BS": 5065,
      "common": 5066,
      "ìŀĲìĿ¸": 5067,
      "pin": 5068,
      "Ġbra": 5069,
      "part": 5070,
      "ĠìĥģëĮĢ": 5071,
      "Ġë°©ìĨ¡": 5072,
      "ĠThat": 5073,
      "Ġci": 5074,
      "Pack": 5075,
      "nto": 5076,
      "ĠAll": 5077,
      "aring": 5078,
      "][": 5079,
      "~~": 5080,
      "Ġì½ĺ": 5081,
      "Ġfat": 5082,
      "Ġreport": 5083,
      "ìĪĻ": 5084,
      "ĊĊĊĠ": 5085,
      "ĠUn": 5086,
      "sol": 5087,
      "ruction": 5088,
      "Ġwor": 5089,
      "ĠData": 5090,
      "ait": 5091,
      "ĠOr": 5092,
      "Ġinf": 5093,
      "Ġê³µê°ľ": 5094,
      "Ġoriginal": 5095,
      "ĠíĿ¬": 5096,
      "document": 5097,
      "Ġìī½": 5098,
      "ĠBy": 5099,
      "pts": 5100,
      "Ġnight": 5101,
      "QL": 5102,
      "Ġreco": 5103,
      "posit": 5104,
      "ĠëĤĺìĺ¤": 5105,
      "êµŃìĿĺ": 5106,
      "ĠìĤ¶": 5107,
      "ĠëįĶìļ±": 5108,
      "ĠìŀĳíĴĪ": 5109,
      "Ġìľ¤": 5110,
      "ĠOF": 5111,
      "íķĺëł¤": 5112,
      "Access": 5113,
      "ĠìĨĮë¹Ħ": 5114,
      "ìĬ¤ë¥¼": 5115,
      "Ġcap": 5116,
      "Ġbit": 5117,
      "ĠUnited": 5118,
      "Ġextra": 5119,
      "Ġê¸Īì§Ģ": 5120,
      "Ġalong": 5121,
      "Ge": 5122,
      "Ġrecord": 5123,
      "ĠêµŃìłľ": 5124,
      ".$": 5125,
      "ìĭłë¬¸": 5126,
      "ĠëĲĺìĸ´": 5127,
      "ĠSy": 5128,
      "Ġë°©ìĭĿ": 5129,
      "Ġ2018": 5130,
      "Ġteam": 5131,
      "88": 5132,
      "ìĬ¤íĦ°": 5133,
      "Ġcla": 5134,
      "ĠìĻĢ": 5135,
      "ideo": 5136,
      "ë·": 5137,
      "Ġ60": 5138,
      "buffer": 5139,
      "ĠìĨ¡": 5140,
      "uri": 5141,
      "Ġìĸ´ëĸ»ê²Į": 5142,
      "Ġresults": 5143,
      "Ġenc": 5144,
      "Ġeither": 5145,
      "Ġsim": 5146,
      "Ġë³´ë©´": 5147,
      "Proto": 5148,
      "Ġcolle": 5149,
      "umb": 5150,
      "Ġha": 5151,
      "Ġì¤Ģë¹Ħ": 5152,
      "Ġbusiness": 5153,
      "ë¡ľë¶ĢíĦ°": 5154,
      "Ġë°ľìłĦ": 5155,
      "So": 5156,
      "References": 5157,
      "AA": 5158,
      "Ġproduct": 5159,
      "ê¸°ìĿĺ": 5160,
      "ìĽĲìĿ´": 5161,
      "Ġiss": 5162,
      "oney": 5163,
      "ĠëĨĵ": 5164,
      "ìľĦìĽĲíļĮ": 5165,
      "nsion": 5166,
      "Ġroot": 5167,
      "bool": 5168,
      "ĠìŀĲëıĻ": 5169,
      "\\\"": 5170,
      "Entry": 5171,
      "ìĪĺìĿĺ": 5172,
      "ribu": 5173,
      "ìĽĲìĿĺ": 5174,
      "cache": 5175,
      "Interface": 5176,
      "ader": 5177,
      "Utils": 5178,
      "criptor": 5179,
      "Case": 5180,
      "Ġroom": 5181,
      "ball": 5182,
      "ĠíķĻêµĲ": 5183,
      "Form": 5184,
      "arn": 5185,
      "Header": 5186,
      "Ġëĸ¨ìĸ´": 5187,
      "itive": 5188,
      "ended": 5189,
      "Ġ29": 5190,
      "roy": 5191,
      "nagement": 5192,
      "Ġê°ķíĻĶ": 5193,
      "Ġgovern": 5194,
      "ified": 5195,
      "ĠíĮĢ": 5196,
      ">,": 5197,
      "ecute": 5198,
      "Ġ{}": 5199,
      "Ġpoli": 5200,
      "()->": 5201,
      "API": 5202,
      "Su": 5203,
      "ĠCal": 5204,
      "ìĤ°ìĹħ": 5205,
      "Vis": 5206,
      "scope": 5207,
      "Ġ2017": 5208,
      "Sc": 5209,
      "Ġ2015": 5210,
      "Ġhandle": 5211,
      "íħĲ": 5212,
      "ľĺ": 5213,
      "ìĿ´ë¥¼": 5214,
      "Ġìłľìŀĳ": 5215,
      "Mo": 5216,
      "should": 5217,
      "Ġwi": 5218,
      "essages": 5219,
      "open": 5220,
      "ìĬ¨": 5221,
      "Operation": 5222,
      "./": 5223,
      "ë¡ľìĦľ": 5224,
      "([": 5225,
      "Ġë¬¼ë¡ł": 5226,
      "Ġíĺķíĥľ": 5227,
      "ĠìĥĿíĻľ": 5228,
      "tten": 5229,
      "ĠType": 5230,
      "Ġspecific": 5231,
      "Entity": 5232,
      "trix": 5233,
      "ires": 5234,
      "ìĬ¤íĥĢ": 5235,
      "Ġenough": 5236,
      "Ġgrow": 5237,
      "ëıĦìĿĺ": 5238,
      "Ġì£¼ìŀ¥": 5239,
      "curity": 5240,
      "Ġland": 5241,
      "Callback": 5242,
      "Column": 5243,
      "oul": 5244,
      "Ġê±´ê°ķ": 5245,
      "Ġë¶ĦìŀĲ": 5246,
      "VE": 5247,
      "ìĥģìĿĺ": 5248,
      "04": 5249,
      "Ġhaving": 5250,
      "ĠĠĠĠĠĊĠĠĠĠĠĠĠ": 5251,
      "Ġæ": 5252,
      "lia": 5253,
      "Ġoft": 5254,
      "Mod": 5255,
      "Ġìĸ´ëĬĲ": 5256,
      "media": 5257,
      "ëĨĵ": 5258,
      "most": 5259,
      "tree": 5260,
      "Ġìľ¡": 5261,
      "ĠReturns": 5262,
      "anti": 5263,
      "Ġbuffer": 5264,
      "ê¸°ìĪł": 5265,
      "Ġê¸°ê°Ħ": 5266,
      "Position": 5267,
      "ìĿĺë¥¼": 5268,
      "ì¡¸": 5269,
      "Ġíıīê·ł": 5270,
      "ĠìŀĲìľł": 5271,
      "Ġìŀ¬ë°°íı¬": 5272,
      "ĠìŀĪëĭ¤ê³ł": 5273,
      "Ġfloat": 5274,
      "ĠíĴį": 5275,
      "Ġê°ľìĦł": 5276,
      "Ġmiss": 5277,
      "nifi": 5278,
      "ULT": 5279,
      "Ġhost": 5280,
      "ĠMay": 5281,
      "ĠĠĠĠĠĠĊĠĠĠĠĠĠĠ": 5282,
      "align": 5283,
      "ĠìĦ±ìŀ¥": 5284,
      "'),": 5285,
      "Ġëľ»": 5286,
      "Load": 5287,
      "voke": 5288,
      "Tree": 5289,
      "Process": 5290,
      "ĠìŀĲìĹ°": 5291,
      "Ġliste": 5292,
      "Ġê¸°ë³¸": 5293,
      "Ġthough": 5294,
      "cd": 5295,
      "ĠFile": 5296,
      "ëĭ¤ê°Ģ": 5297,
      "Ġdays": 5298,
      "wise": 5299,
      "ìĨĶ": 5300,
      "Ġlocation": 5301,
      "auto": 5302,
      "Range": 5303,
      "ĠìĥģìĬ¹": 5304,
      "ë®": 5305,
      "ĠWhat": 5306,
      "Json": 5307,
      "Ġreturns": 5308,
      "ëıĻìĿĦ": 5309,
      "Height": 5310,
      "Ġcreated": 5311,
      "Ġvalid": 5312,
      "68": 5313,
      "Ġëªĩ": 5314,
      "token": 5315,
      "Ġëĳĺ": 5316,
      "Ġoffset": 5317,
      "Max": 5318,
      "uk": 5319,
      "äº": 5320,
      "Use": 5321,
      "Ġconf": 5322,
      "KE": 5323,
      "Ġbig": 5324,
      "gal": 5325,
      "ĠBri": 5326,
      "Ġofte": 5327,
      "bor": 5328,
      "ĠDi": 5329,
      "ilar": 5330,
      "Ġgame": 5331,
      "Ġoften": 5332,
      "ìľ¤": 5333,
      "ìłķíķľ": 5334,
      "CODE": 5335,
      "Ġreturned": 5336,
      "Ġprovided": 5337,
      "ëĵľë¥¼": 5338,
      "Ġìķķ": 5339,
      "ĠMy": 5340,
      "âĹ": 5341,
      "Ġfac": 5342,
      "ë¨¼": 5343,
      "ĠíĮĮìĿ¼": 5344,
      "ëĮĢíķľ": 5345,
      "ëĤ´ëĬĶ": 5346,
      "Ġê·ľëª¨": 5347,
      "Ġrelated": 5348,
      "ìĩ¼": 5349,
      "Ġê³µê¸ī": 5350,
      "ê³¼ìĿĺ": 5351,
      "ëħĦìĹĲ": 5352,
      "ë§Īëĭ¤": 5353,
      "yna": 5354,
      "Ġequ": 5355,
      "67": 5356,
      "ë²½": 5357,
      "Module": 5358,
      "iddle": 5359,
      "Ġver": 5360,
      "Ġseveral": 5361,
      "pository": 5362,
      "Ġframe": 5363,
      "ĸìĹĲ": 5364,
      "Ġë¬´ìĹĩ": 5365,
      "las": 5366,
      "ëĦ·": 5367,
      "ĠUniversity": 5368,
      "Ġnav": 5369,
      "Ġíģ¬ê²Į": 5370,
      "ĠíĮĲëĭ¨": 5371,
      "ê´Ģë¦¬": 5372,
      "pyright": 5373,
      "Search": 5374,
      "ĠĠĠĠĠĠĠĠĠĠĠĠĊĠĠĠĠĠĠĠĠĠĠĠĠ": 5375,
      "Ġë´": 5376,
      "Ġav": 5377,
      "wards": 5378,
      "Ġê²½ìŁģ": 5379,
      "Ġë¨¼": 5380,
      "Ġrole": 5381,
      "ĠëĶ°ëĿ¼ìĦľ": 5382,
      "ĠApp": 5383,
      "íķĺê±°ëĤĺ": 5384,
      "tml": 5385,
      "leted": 5386,
      "Ġaf": 5387,
      "sa": 5388,
      "OST": 5389,
      "ìĮ": 5390,
      "Location": 5391,
      "Document": 5392,
      "čĊĠĠĠĠĠĠĠĠĠĠĠĠĠĠĠĠĠĠĠĠĠĠĠĠ": 5393,
      "Ġĉ": 5394,
      "Ġprof": 5395,
      "resource": 5396,
      "ux": 5397,
      "vention": 5398,
      "Ġ2016": 5399,
      "ja": 5400,
      "men": 5401,
      "fri": 5402,
      "Rem": 5403,
      "Dir": 5404,
      "non": 5405,
      "ffe": 5406,
      "nitial": 5407,
      "raint": 5408,
      "Argument": 5409,
      "Ġrea": 5410,
      "df": 5411,
      "49": 5412,
      "float": 5413,
      "ìĤ¬íļĮ": 5414,
      "íĹĪ": 5415,
      "Return": 5416,
      "oter": 5417,
      "ĠCon": 5418,
      "Ġmultiple": 5419,
      "INT": 5420,
      "ĠíĳľíĺĦ": 5421,
      "tition": 5422,
      "ĠìĽĲìŀĲ": 5423,
      "ìłĦíŀĪ": 5424,
      "Ġaccount": 5425,
      "Ġê¸Īìľµ": 5426,
      "ids": 5427,
      "border": 5428,
      "ìĽĲìĿĢ": 5429,
      "íĥģ": 5430,
      "Mat": 5431,
      "BC": 5432,
      "Ġamong": 5433,
      "imal": 5434,
      "ĠìĭľëĮĢ": 5435,
      "ĠìŀĲì²´": 5436,
      "Ġì§Ģë°©": 5437,
      "Ġcity": 5438,
      "classes": 5439,
      "artifact": 5440,
      "ĠĠĠĠĠĠĠĠĠĠĠĠĊĠĠĠĠĠĠĠĠĠĠĠĠĠ": 5441,
      "One": 5442,
      "Ġsha": 5443,
      "09": 5444,
      "rest": 5445,
      "Thread": 5446,
      "ë¡Ń": 5447,
      "Hash": 5448,
      "ati": 5449,
      "Ġê³µëıĻ": 5450,
      "Ġëª¨ëį¸": 5451,
      "ìĹĨìĿ´": 5452,
      "=\"../../../../../": 5453,
      "čĊĠĠĠĠĠĠĠĠĠĠĠĠĠĠĠĠĠĠĠĠĠĠĠĠĠ": 5454,
      "ĠíĽ": 5455,
      "Ġíķ´ê²°": 5456,
      "ĠíķĦìļĶíķľ": 5457,
      "-(": 5458,
      "Ġê°Ģì¡±": 5459,
      "Http": 5460,
      "ĠCreate": 5461,
      "ìĿ¸ìĿĦ": 5462,
      "Ġprom": 5463,
      "cene": 5464,
      "final": 5465,
      "Ġblack": 5466,
      "Ġìłľì¡°": 5467,
      "Parameter": 5468,
      "Ġrele": 5469,
      "Ġbelie": 5470,
      "ente": 5471,
      "ìĶ¨ëĬĶ": 5472,
      "Ġvirtual": 5473,
      "ATION": 5474,
      "Ġê³µê°Ħ": 5475,
      "ntly": 5476,
      "ĠíĦ°": 5477,
      "ĠReg": 5478,
      "Ġremove": 5479,
      "VAL": 5480,
      "term": 5481,
      "ros": 5482,
      "Ġtold": 5483,
      "Ġassocia": 5484,
      "199": 5485,
      "Ġparameter": 5486,
      "vil": 5487,
      "ĠìķĬìķĺ": 5488,
      "ĠíĥĪ": 5489,
      "Ġnetwork": 5490,
      "Ġatom": 5491,
      "Ġìļ¸": 5492,
      "ê·Ģ": 5493,
      "ê°ľìĽĶ": 5494,
      "nature": 5495,
      "Ġê°ķì¡°": 5496,
      "None": 5497,
      "Ġperson": 5498,
      "ìľ¼ë¡ľìį¨": 5499,
      "%%": 5500,
      "igation": 5501,
      "Ġë°©íĸ¥": 5502,
      "Ġarg": 5503,
      "Ġfilm": 5504,
      "Empty": 5505,
      "Ġprac": 5506,
      "Ġ>=": 5507,
      "methyl": 5508,
      "ĠìłĦêµŃ": 5509,
      "Ġspace": 5510,
      "\"))": 5511,
      "gr": 5512,
      "ìłķë¶Ģ": 5513,
      "ĠíĴĢ": 5514,
      "ë²¤": 5515,
      "havi": 5516,
      "ĠĠĠĠĠĠĠĊĠĠĠĠĠĠĠ": 5517,
      "Ġ2014": 5518,
      "OM": 5519,
      "Ġmind": 5520,
      "stylesh": 5521,
      "47": 5522,
      "ctx": 5523,
      "STR": 5524,
      "Ġmaking": 5525,
      "Ġê¸°ë°ĺ": 5526,
      "Ġíľ´": 5527,
      "External": 5528,
      "Ġyet": 5529,
      "ìĬ¤ëĬĶ": 5530,
      "Ġupon": 5531,
      "sing": 5532,
      "Ġpor": 5533,
      "Ġrat": 5534,
      "Ġunderstand": 5535,
      "Script": 5536,
      "boot": 5537,
      "ĠGod": 5538,
      "ĠâĢĶ": 5539,
      "ë°ĺìĿĳ": 5540,
      "Ġable": 5541,
      "čĊĠĠĠĠĠĠĠĠĠĠĠĠĠĠĠĠĠĠĠĠĠĠĠĠĠĠ": 5542,
      "Ġdefined": 5543,
      "ĠìķĦëŀĺ": 5544,
      "Ġadded": 5545,
      "Fla": 5546,
      "ĠìķĦë¬´": 5547,
      "pacity": 5548,
      "Ġeyes": 5549,
      "ĠMat": 5550,
      "ê²½ìłľ": 5551,
      "fic": 5552,
      "ëĽ": 5553,
      "ìĶ©": 5554,
      "íĿ¥": 5555,
      "ìĬ¤ìĿĺ": 5556,
      "ãĢĭ": 5557,
      "utils": 5558,
      "Ġpur": 5559,
      "ube": 5560,
      "íĴį": 5561,
      "ĠĠĠĠĠĠĠĠĊĠĠĠĠĠĠĠ": 5562,
      "ì£Ħ": 5563,
      "hoto": 5564,
      "Ġevents": 5565,
      "ĠìĿ": 5566,
      "=\"-": 5567,
      "íĭĢ": 5568,
      "ìĿ´ëĵľ": 5569,
      "tmp": 5570,
      "čĊĠĠĠĠĠĠĠĠĠĠĠĠĠĠĠĠĠĠĠĠĠĠĠĠĠĠĠ": 5571,
      "Params": 5572,
      "center": 5573,
      "ìĬ¤ë¡ľ": 5574,
      "oom": 5575,
      "Ġcolumn": 5576,
      "03": 5577,
      "ĠìŀĲê¸°": 5578,
      "nume": 5579,
      "Ġmedia": 5580,
      "ĠìĦłê±°": 5581,
      "TI": 5582,
      "ìĿ¸ì§Ģ": 5583,
      "ĳ¸": 5584,
      "Ġê°Ģì§Ģê³ł": 5585,
      "Level": 5586,
      "Ġprevious": 5587,
      "Ġmeans": 5588,
      "Next": 5589,
      "ĠĠĠĠĠĠĠĠĠĠĠĠĊĠĠĠĠĠĠĠĠĠĠĠĠĠĠ": 5590,
      "Ġì¦Ĳ": 5591,
      "Ġdea": 5592,
      "cator": 5593,
      "Ġimm": 5594,
      "Ġeffect": 5595,
      "Ġperi": 5596,
      "ë¨¸ëĭĪ": 5597,
      "ĠëĮĢë¹Ħ": 5598,
      "ķĳ": 5599,
      "Ġcir": 5600,
      "ìĹĲìĦľìĿĺ": 5601,
      "ì°¸": 5602,
      "foo": 5603,
      "ĠìĿ´ëıĻ": 5604,
      "ìĭľëĬĶ": 5605,
      "ĠìĦłìĪĺ": 5606,
      "ĠHis": 5607,
      "ĠĠĠĠĠĠĠĠĠĠĠĠĊĠĠĠĠĠĠĠĠĠĠĠĠĠĠĠ": 5608,
      "ident": 5609,
      "ĠëıĪ": 5610,
      "Ġunit": 5611,
      "ëıĦëĬĶ": 5612,
      "small": 5613,
      "Ġquestion": 5614,
      "59": 5615,
      "sig": 5616,
      "vidual": 5617,
      "ĠíĺĦëĮĢ": 5618,
      "07": 5619,
      "42": 5620,
      "drop": 5621,
      "Ġ*)": 5622,
      "Ġbegin": 5623,
      "Ġë¶ģíķľ": 5624,
      "cm": 5625,
      "ede": 5626,
      "Ġauthor": 5627,
      "II": 5628,
      "eal": 5629,
      "Ġever": 5630,
      "Mar": 5631,
      "els": 5632,
      "Ġëª©íĳľ": 5633,
      "Ġê²ĥëıĦ": 5634,
      "Ġsocial": 5635,
      "Ġplan": 5636,
      "ressed": 5637,
      "Ġow": 5638,
      "ĠDat": 5639,
      "Ġasked": 5640,
      "docs": 5641,
      "ĠName": 5642,
      "ëĭĪê¹Į": 5643,
      "ko": 5644,
      "Ġlaw": 5645,
      "ëŃ": 5646,
      "rmi": 5647,
      "tan": 5648,
      "ALL": 5649,
      "Ġ$(": 5650,
      "cular": 5651,
      "hash": 5652,
      "Ġvarious": 5653,
      "06": 5654,
      "ĠìĤ¬ëŀĮìĿ´": 5655,
      "Ġëĵ±ìŀ¥": 5656,
      "Ġ2019": 5657,
      "ibility": 5658,
      "vered": 5659,
      "SH": 5660,
      "Settings": 5661,
      "ĠëĦĪë¬´": 5662,
      "ndo": 5663,
      "Option": 5664,
      "åħ": 5665,
      "ĠYork": 5666,
      "ë¶Ģë¥¼": 5667,
      "Ġcannot": 5668,
      "ìĿĢíĸī": 5669,
      "ĠìķĦëĭĪëĭ¤": 5670,
      "ĠBo": 5671,
      "46": 5672,
      "hadow": 5673,
      "ĠìĹĨìĹĪëĭ¤": 5674,
      "Ġempty": 5675,
      "Ġdoesn": 5676,
      "ê¶ĮìĿĦ": 5677,
      "íķĳ": 5678,
      "debug": 5679,
      "ĠStates": 5680,
      "ĠBa": 5681,
      "Ġëĥ": 5682,
      "udi": 5683,
      "Ġlink": 5684,
      "íĸĪëĭ¤ê³ł": 5685,
      "ê·¸ëŁ¬": 5686,
      "ìĬ¤íģ¬": 5687,
      "ĠUR": 5688,
      "ons": 5689,
      "Ġmusic": 5690,
      "%;": 5691,
      "IGN": 5692,
      "ĠíĬ¹ë³Ħ": 5693,
      "Ġcountry": 5694,
      "Ġtypes": 5695,
      "IZE": 5696,
      "Ġhimself": 5697,
      "íĶĦíĬ¸": 5698,
      "Open": 5699,
      "Ġì¤ĳìļĶíķľ": 5700,
      "ĠíĴĪ": 5701,
      "ëŀ«": 5702,
      "Ġì¢Į": 5703,
      "ê°ľìĿĺ": 5704,
      "Ġelements": 5705,
      "Ide": 5706,
      "Ġstream": 5707,
      "Cal": 5708,
      "estroy": 5709,
      "device": 5710,
      "ĠëĮĢìĥģìľ¼ë¡ľ": 5711,
      "Connection": 5712,
      "ridge": 5713,
      "strap": 5714,
      "etry": 5715,
      "ê°Ļ": 5716,
      ".)": 5717,
      "ĠìĬ¤íĥĢ": 5718,
      "Ġëĵ¯": 5719,
      "Handle": 5720,
      "Ġjob": 5721,
      "Ġbi": 5722,
      "Ġnothing": 5723,
      "gment": 5724,
      "Ġdeat": 5725,
      "Ġss": 5726,
      "ìĿ¸ìĿĢ": 5727,
      "Ġcourse": 5728,
      "ìŀĪëĬĶ": 5729,
      "command": 5730,
      "ìŀ¥ìĿĺ": 5731,
      "ëĦĪì§Ģ": 5732,
      "Ġanal": 5733,
      "eft": 5734,
      "Ġxml": 5735,
      "Ġ::": 5736,
      "Ġdialog": 5737,
      "ëłµ": 5738,
      "ĠìĿ´ìłĦ": 5739,
      "ìĿ´ìħĺ": 5740,
      "ìķĪìĿĦ": 5741,
      "Ġfail": 5742,
      "Ġmor": 5743,
      "čĊčĊĠĠĠ": 5744,
      "ĠDis": 5745,
      "Ġ...": 5746,
      "Ġfood": 5747,
      "Ġwon": 5748,
      "å¤": 5749,
      "Ġë³´ìĿ¸ëĭ¤": 5750,
      "_,": 5751,
      "ĠìŀĳìĹħ": 5752,
      "ĠFa": 5753,
      "Ġperform": 5754,
      "utor": 5755,
      "ĠSee": 5756,
      "Ġwomen": 5757,
      "ney": 5758,
      "dro": 5759,
      "56": 5760,
      "Ġë¯¼ì£¼": 5761,
      "Ġconnection": 5762,
      "å®": 5763,
      "Ġschool": 5764,
      "Properties": 5765,
      "wher": 5766,
      "Ġparams": 5767,
      "Can": 5768,
      "Collection": 5769,
      "Ġmer": 5770,
      "ìŀĦìĿĦ": 5771,
      "Ġlinks": 5772,
      "Ġdetermi": 5773,
      "lugins": 5774,
      "Ġreference": 5775,
      "Ġì¡°ì§ģ": 5776,
      "ìĭľìĦ¤": 5777,
      "where": 5778,
      "Ġpadding": 5779,
      "support": 5780,
      "ëĽ°": 5781,
      "Ġë°ĺìĿĳ": 5782,
      "ìĽĢìĿĦ": 5783,
      "ĠÎ": 5784,
      "Ġ2013": 5785,
      "ĠJohn": 5786,
      "ART": 5787,
      "ĠíĹ¤": 5788,
      "pth": 5789,
      "Change": 5790,
      "national": 5791,
      "bab": 5792,
      "():": 5793,
      "ìĿ´ìĹĲ": 5794,
      "Ġmember": 5795,
      "ĠÂ·": 5796,
      "ursor": 5797,
      "âĪ": 5798,
      "íķĺëıĦë¡Ŀ": 5799,
      "Ġprogram": 5800,
      "Ġsec": 5801,
      "Serial": 5802,
      "íĻĺê²½": 5803,
      "asure": 5804,
      "laye": 5805,
      "ĠUp": 5806,
      "sm": 5807,
      "udio": 5808,
      ":(": 5809,
      "ë¢": 5810,
      "Ġinstead": 5811,
      "ermi": 5812,
      "Ġì§Ģìłģ": 5813,
      "ê½ĥ": 5814,
      "apte": 5815,
      "CL": 5816,
      "ula": 5817,
      "irectory": 5818,
      "La": 5819,
      "ides": 5820,
      "ggle": 5821,
      "ĠAssert": 5822,
      "oriz": 5823,
      "Ġoverride": 5824,
      "PECT": 5825,
      "Ġ2012": 5826,
      "artifactId": 5827,
      "before": 5828,
      "redi": 5829,
      "math": 5830,
      "Ġfoot": 5831,
      "Ġê°Ĳëıħ": 5832,
      "ĠìĹħë¬´": 5833,
      "Ab": 5834,
      "Ġìĺ¤íĽĦ": 5835,
      "íĥķ": 5836,
      "apter": 5837,
      "ĠìĦľë¡ľ": 5838,
      "ala": 5839,
      "erator": 5840,
      "Ġcontinu": 5841,
      "ĠNa": 5842,
      "urth": 5843,
      "ë¢°": 5844,
      "Ġothers": 5845,
      ",'": 5846,
      "ĊĊĊĠĠ": 5847,
      "Ġíķ©ëĭĪëĭ¤": 5848,
      "Ġìłľìĭľ": 5849,
      "ĠìŀĲë£Į": 5850,
      "images": 5851,
      "ĠTrans": 5852,
      "ëĵ¯": 5853,
      "ê¸ĪìĿĦ": 5854,
      "Ġprovides": 5855,
      "Ġhash": 5856,
      "Ġëĵ±ìĹĲ": 5857,
      "íıĲ": 5858,
      "FO": 5859,
      "zz": 5860,
      "Ġê²°êµŃ": 5861,
      "ei": 5862,
      "types": 5863,
      "ACK": 5864,
      "Ġhuman": 5865,
      "Ġì²ĺë¦¬": 5866,
      "level": 5867,
      "posed": 5868,
      "íĭ´": 5869,
      "ì§ĢëıĦ": 5870,
      "ì§ĢíĦ¸": 5871,
      "deta": 5872,
      "ĠGer": 5873,
      "ysis": 5874,
      "Ġundefined": 5875,
      "Ģë¡ľë²Į": 5876,
      "ëŁīìĿĦ": 5877,
      "°ëĭ¤": 5878,
      "cono": 5879,
      "kers": 5880,
      "layer": 5881,
      "Ġlow": 5882,
      "ìļĶìķ½": 5883,
      "argument": 5884,
      "Expression": 5885,
      "Jo": 5886,
      "ĠìĤ¬ì§Ħ": 5887,
      "ĠìĺĪìĥģ": 5888,
      "Ġê¸´": 5889,
      "Ã¨": 5890,
      "ĠGu": 5891,
      "Ġsum": 5892,
      "Ġcult": 5893,
      "Ġbea": 5894,
      "Ġë¯¸ëŀĺ": 5895,
      "Ġseen": 5896,
      "Ġë³´ëĭ¤": 5897,
      "Ph": 5898,
      "internal": 5899,
      "íĬ¸ë¥¼": 5900,
      "Ġ2010": 5901,
      "Ġë§¡": 5902,
      "Ġbelow": 5903,
      "ìĦ±ê³¼": 5904,
      "Impl": 5905,
      "Ġentry": 5906,
      "Min": 5907,
      "Ġwhite": 5908,
      "ents": 5909,
      "ices": 5910,
      "?:": 5911,
      "Ġimpro": 5912,
      "ë¦°ëĭ¤": 5913,
      "este": 5914,
      "¤ëĭ¤": 5915,
      "tify": 5916,
      "Ptr": 5917,
      "ama": 5918,
      "58": 5919,
      "Async": 5920,
      "bb": 5921,
      "ëĶĶìĸ´": 5922,
      "Ġíķĺì§Ģ": 5923,
      "ĠException": 5924,
      "ntax": 5925,
      "hot": 5926,
      "Ġq": 5927,
      "\"));": 5928,
      "57": 5929,
      "{{": 5930,
      "Ġë¹Ī": 5931,
      "tbody": 5932,
      "Ġcontinue": 5933,
      "Ġhea": 5934,
      "hird": 5935,
      "Ġë°©ë¬¸": 5936,
      "plied": 5937,
      "Ġbecome": 5938,
      "third": 5939,
      "Ġë¹Ħë¡¯": 5940,
      "example": 5941,
      "lar": 5942,
      "Ġë´ī": 5943,
      "ĠëĤ´ê°Ģ": 5944,
      "ynamic": 5945,
      "Ġíĸīìłķ": 5946,
      "Store": 5947,
      "ĠìĿ´ë£¨ìĸ´": 5948,
      "mission": 5949,
      "ĠìĿ¸íķ´": 5950,
      "=\"_": 5951,
      "Ġent": 5952,
      "msg": 5953,
      "Ġhistory": 5954,
      "ecution": 5955,
      "COLOR": 5956,
      "ëŀĲ": 5957,
      "models": 5958,
      "ëıĻìķĪ": 5959,
      "ĊĊĊĠĠĠ": 5960,
      "Ġê´Ģê³ĦìŀĲëĬĶ": 5961,
      "DL": 5962,
      "fect": 5963,
      "touch": 5964,
      "Ġattribute": 5965,
      "off": 5966,
      "Ġaccording": 5967,
      "ĠìłĦë§Ŀ": 5968,
      "Ġcompany": 5969,
      "Session": 5970,
      "ceed": 5971,
      "Ġconsider": 5972,
      "eature": 5973,
      "Ġarguments": 5974,
      "Ġì¡°ìĦł": 5975,
      "Ġ['": 5976,
      "Project": 5977,
      "MO": 5978,
      "Ġclos": 5979,
      "æľ": 5980,
      "ison": 5981,
      "Ġ2011": 5982,
      "íķĺìŀĲ": 5983,
      "Ġê¿": 5984,
      "Ġhalf": 5985,
      "Ġworking": 5986,
      "Ġëĭ¨ê³Ħ": 5987,
      "XX": 5988,
      "Ġ2020": 5989,
      "handle": 5990,
      "CR": 5991,
      "ê°ĲìĿĦ": 5992,
      "Ġenti": 5993,
      "Ġqual": 5994,
      "Per": 5995,
      "column": 5996,
      "Ġwatch": 5997,
      "Ġtemplate": 5998,
      "Ġlooked": 5999,
      "Ġearly": 6000,
      "ributed": 6001,
      "Ġë§Įíģ¼": 6002,
      "ĠìĻľ": 6003,
      "tablish": 6004,
      "ìĻĦ": 6005,
      "Ġchem": 6006,
      "Ġê²½ì°°": 6007,
      "Ġìĭľë¯¼": 6008,
      "pirit": 6009,
      "pm": 6010,
      "groupId": 6011,
      "ĠëĤĺìĺ¨": 6012,
      "=\"../../../../../../": 6013,
      "Ġfilter": 6014,
      "ìĦ¸ìļĶ": 6015,
      "kg": 6016,
      "sd": 6017,
      "Ġanything": 6018,
      "udy": 6019,
      "ualization": 6020,
      "iter": 6021,
      "radi": 6022,
      "Ġbecame": 6023,
      "empty": 6024,
      "åı": 6025,
      "ìĦľë¥¼": 6026,
      "Ġstarted": 6027,
      "licit": 6028,
      "Ġâĸ³": 6029,
      "Description": 6030,
      "ĠTO": 6031,
      "pher": 6032,
      "ìĤ¬ìĹĲ": 6033,
      "ì§ľ": 6034,
      "files": 6035,
      "Delete": 6036,
      "tili": 6037,
      "ĠìķĮê³ł": 6038,
      "xi": 6039,
      "Ġconnect": 6040,
      "Ġga": 6041,
      "ëĮĢë¥¼": 6042,
      "Font": 6043,
      "Ġparticular": 6044,
      "irs": 6045,
      "elli": 6046,
      "Core": 6047,
      "background": 6048,
      "My": 6049,
      "oss": 6050,
      "ĠDate": 6051,
      "Ġ197": 6052,
      "delete": 6053,
      "Ġbox": 6054,
      "cked": 6055,
      "================================": 6056,
      "ĠFr": 6057,
      "ORT": 6058,
      "Ã¶": 6059,
      "ĠëĽ°": 6060,
      "ĠëĨĢ": 6061,
      "ĠSouth": 6062,
      "Local": 6063,
      "ĠSer": 6064,
      "EQ": 6065,
      "nz": 6066,
      "Ġspecial": 6067,
      "ë¤": 6068,
      "nna": 6069,
      "values": 6070,
      "Menu": 6071,
      "Ġfig": 6072,
      "olved": 6073,
      "Ġpop": 6074,
      "ĠWith": 6075,
      "Ġglobal": 6076,
      "Ġê²©": 6077,
      "Ġcente": 6078,
      "tives": 6079,
      "Ġdel": 6080,
      "byt": 6081,
      "86": 6082,
      "ëĮĢíĳľ": 6083,
      "ì§Ģë§ī": 6084,
      "ë¥´ê²Į": 6085,
      "Ġindividual": 6086,
      "ĠíĮĶ": 6087,
      "ë¦¬ìĿĺ": 6088,
      "íķľëĭ¤ëĬĶ": 6089,
      "ragment": 6090,
      "fac": 6091,
      "Ġworks": 6092,
      "Ġlayer": 6093,
      "Ġgovernment": 6094,
      "ëĵ¤ëıĦ": 6095,
      "ctionary": 6096,
      "Ġcommuni": 6097,
      "ĠìŀĪì§Ģë§Į": 6098,
      "Ġexception": 6099,
      "Com": 6100,
      "Ġhealth": 6101,
      "ĠUS": 6102,
      "ìĦľìļ¸": 6103,
      "ĠìĿ´ê²ĥ": 6104,
      "Util": 6105,
      "Top": 6106,
      "place": 6107,
      "ECT": 6108,
      "bra": 6109,
      "Ġsaw": 6110,
      "Ġseries": 6111,
      "Cons": 6112,
      "ĠCheck": 6113,
      "Ġë³´íĺ¸": 6114,
      "Ġenvironment": 6115,
      "ìĦłìĿĦ": 6116,
      "ĠìĦĿ": 6117,
      "ncies": 6118,
      "UB": 6119,
      "Ġpassed": 6120,
      "Op": 6121,
      "umns": 6122,
      "Ġconfiguration": 6123,
      "êµ¬ì¡°": 6124,
      "Helper": 6125,
      "ë¡ľëĬĶ": 6126,
      "Ġpersonal": 6127,
      "nh": 6128,
      "Kind": 6129,
      "ĠĠĉ": 6130,
      "Ġenter": 6131,
      "MI": 6132,
      "Port": 6133,
      "Ġwhy": 6134,
      "Ġì»¨": 6135,
      "ëĩĮ": 6136,
      "ê°Ĵ": 6137,
      "Ġ31": 6138,
      "ĠNot": 6139,
      "ency": 6140,
      "tamp": 6141,
      "Ġcur": 6142,
      "Ġê·¸ëħĢ": 6143,
      "ìłĦìĿĦ": 6144,
      "Ġens": 6145,
      "ì´Į": 6146,
      "ĠSome": 6147,
      "Ġcolspan": 6148,
      "Ġhy": 6149,
      "Ġbeh": 6150,
      "ember": 6151,
      "Ġyoung": 6152,
      "ĠOne": 6153,
      "utable": 6154,
      "CP": 6155,
      "cing": 6156,
      "Ġactive": 6157,
      "ĠCount": 6158,
      "Current": 6159,
      "Ċĉĉĉĉĉĉĉ": 6160,
      "Ġtransaction": 6161,
      "Ġìĭľíĸī": 6162,
      "ĠëĮĢìĿĳ": 6163,
      "Reference": 6164,
      "Ġfilename": 6165,
      "leep": 6166,
      "ĠìķĬìĿĦ": 6167,
      "ĠíĿĶ": 6168,
      "itle": 6169,
      "ĠTV": 6170,
      "?'": 6171,
      "joi": 6172,
      "íĶ½": 6173,
      "Ġincludes": 6174,
      "Ġcommo": 6175,
      "ìĿ´ëĿ¼ë©°": 6176,
      "Schema": 6177,
      "ĠìĥģíĴĪ": 6178,
      "ees": 6179,
      "ìĽł": 6180,
      "Ġcontainer": 6181,
      "Spec": 6182,
      "ìĿ¸ëį°": 6183,
      "Ġê·¸ëłĩ": 6184,
      "Ġmembers": 6185,
      "ĠHowever": 6186,
      "ians": 6187,
      "Ġparameters": 6188,
      "Ġì§ĢëĤĺ": 6189,
      "íĹĮ": 6190,
      "Ġstore": 6191,
      "ìĤ¬ìĻĢ": 6192,
      "tool": 6193,
      "Ġhtt": 6194,
      "Parser": 6195,
      "dom": 6196,
      "Ġë¶ĢìĤ°": 6197,
      "Ġëħ¸ëıĻ": 6198,
      "ĠìĤ¼ìĦ±": 6199,
      "gl": 6200,
      "ĠìĤ¬ê³ł": 6201,
      "ĠìĿ¸ìłķ": 6202,
      "annotation": 6203,
      "stylesheet": 6204,
      "Record": 6205,
      "kin": 6206,
      "Ġêµ": 6207,
      "Acc": 6208,
      "ĠDE": 6209,
      "ĠíĻķë³´": 6210,
      "ì§ĢìĹĲ": 6211,
      "íĺ¹": 6212,
      "Ġë°ĽìĿĢ": 6213,
      "cep": 6214,
      "patch": 6215,
      "Ġobser": 6216,
      "ĠìĦłìłķ": 6217,
      "Ġmoment": 6218,
      "Ġë°ľê²¬": 6219,
      "Ġamount": 6220,
      "ê°ľë°ľ": 6221,
      "Ġtag": 6222,
      "widget": 6223,
      "interface": 6224,
      "Ġacross": 6225,
      "Ġconfi": 6226,
      "ntion": 6227,
      "Ġreli": 6228,
      "BO": 6229,
      "Ġìĸ´ë¦°": 6230,
      "ìŀ¥ìĹĲìĦľ": 6231,
      "join": 6232,
      "Ġremai": 6233,
      "dated": 6234,
      "©ëĭĪëĭ¤": 6235,
      "Ap": 6236,
      "send": 6237,
      "Ġì£¼ë¯¼": 6238,
      "ĠìķĦì§ģ": 6239,
      "Ġstar": 6240,
      "ĬìĿĢ": 6241,
      "ĠState": 6242,
      "though": 6243,
      "legate": 6244,
      "Ġalign": 6245,
      "Ġword": 6246,
      "Ġë¯": 6247,
      "Ġsolid": 6248,
      "Ġfee": 6249,
      "tish": 6250,
      "chine": 6251,
      "ĠWorld": 6252,
      "ë§¥": 6253,
      "ì¹ł": 6254,
      "ĠìĤ´ìķĦ": 6255,
      "Ġsort": 6256,
      "exports": 6257,
      "ìĿ´ë²Ī": 6258,
      "Ġnamespace": 6259,
      "ĠìĿ½": 6260,
      "'],": 6261,
      "ERROR": 6262,
      "Ġtoken": 6263,
      "ĠìŀĪëĬĶëį°": 6264,
      "Ġwhole": 6265,
      "Ġcommon": 6266,
      "Ġlot": 6267,
      "session": 6268,
      "Ġparse": 6269,
      "Ġcho": 6270,
      "ĊĉĊ": 6271,
      "Ġdraw": 6272,
      "Ġë¶Ħë¥ĺ": 6273,
      "nyl": 6274,
      "ĠNS": 6275,
      "ĠFe": 6276,
      "istor": 6277,
      "Ġë¶Ļ": 6278,
      "eep": 6279,
      "unch": 6280,
      "ority": 6281,
      "nic": 6282,
      "Ġmethods": 6283,
      "Auto": 6284,
      "ĠWar": 6285,
      "Ġë°°ìļ°": 6286,
      "Ġìłķìĭł": 6287,
      "categ": 6288,
      "ĠEXPECT": 6289,
      "Ġíĺ¹": 6290,
      "cade": 6291,
      "rot": 6292,
      "plugin": 6293,
      "ench": 6294,
      "Valid": 6295,
      "Ġmolecule": 6296,
      "She": 6297,
      "69": 6298,
      "aa": 6299,
      "'>": 6300,
      "Ġlay": 6301,
      "cially": 6302,
      "Ġìĥģëĭ¹": 6303,
      "rations": 6304,
      "ê°Ģë¥¼": 6305,
      "oon": 6306,
      "Ġinfo": 6307,
      "Ġì¼Ģ": 6308,
      "toString": 6309,
      "Ġíķ´ìĻ¸": 6310,
      "Ġfath": 6311,
      "Ġcamp": 6312,
      "Ġreceived": 6313,
      "ĠUse": 6314,
      "ëĶ©": 6315,
      "ë¹Ī": 6316,
      "Match": 6317,
      "ìłķìĿ´": 6318,
      "sed": 6319,
      "Ġsoftware": 6320,
      "byte": 6321,
      "webkit": 6322,
      "DIR": 6323,
      "ì§ĢìĽĲ": 6324,
      ")âĢĻ": 6325,
      "Ġproblem": 6326,
      "43": 6327,
      "Integer": 6328,
      "Parameters": 6329,
      "Ġhttps": 6330,
      "Ġflow": 6331,
      "ĠìĹĶ": 6332,
      "Ġë²Īì§¸": 6333,
      "Ġchanges": 6334,
      "ann": 6335,
      "ë¶ĢìĹĲ": 6336,
      "ìĨĮë¥¼": 6337,
      "ky": 6338,
      "ĠOR": 6339,
      "ham": 6340,
      "Ġìłģê·¹": 6341,
      "Ġil": 6342,
      "Ġexpla": 6343,
      "control": 6344,
      "ĠDef": 6345,
      "Control": 6346,
      "Ġfriend": 6347,
      "Host": 6348,
      "Ġregion": 6349,
      "pendent": 6350,
      "Ġmemory": 6351,
      "toms": 6352,
      "ecurity": 6353,
      "íİ´": 6354,
      "Template": 6355,
      "ina": 6356,
      "sv": 6357,
      "ras": 6358,
      "IF": 6359,
      "Ġbegan": 6360,
      "aining": 6361,
      "Ġneeded": 6362,
      "ĊĠĠĠĠĠĠĠĠĊĠĠĠĠĠĠĠ": 6363,
      "address": 6364,
      "ĠìĺĪìłķìĿ´ëĭ¤": 6365,
      "uly": 6366,
      "Ġequal": 6367,
      "Ġdoing": 6368,
      "ĠíĻĪ": 6369,
      "Ġrunning": 6370,
      "False": 6371,
      "clo": 6372,
      "rics": 6373,
      "arth": 6374,
      "Na": 6375,
      "ĠìĿ´ëłĩê²Į": 6376,
      "ores": 6377,
      "ĠëĤĺíĥĢëĤ¬ëĭ¤": 6378,
      "500": 6379,
      "Ther": 6380,
      "Ġfeatures": 6381,
      "ĠìŀĪìľ¼": 6382,
      "uted": 6383,
      "river": 6384,
      "Ġpublish": 6385,
      "ê±°ë¦¬": 6386,
      "ĠHar": 6387,
      "ĠThese": 6388,
      "Ġknew": 6389,
      "ì¦ĺ": 6390,
      "icrosoft": 6391,
      "tations": 6392,
      "Ġê°Ĵ": 6393,
      "Ġadva": 6394,
      "Ġë¨¼ìłĢ": 6395,
      "Ġëķ": 6396,
      "ìĿ¼ë³´": 6397,
      "respond": 6398,
      "`.": 6399,
      "ev": 6400,
      "Ġë£¨": 6401,
      "Ġì§ĳì¤ĳ": 6402,
      "Ġswitch": 6403,
      "Bind": 6404,
      "forms": 6405,
      "Ġdiscuss": 6406,
      "make": 6407,
      "render": 6408,
      "(*": 6409,
      "When": 6410,
      "Spe": 6411,
      "ills": 6412,
      "Deta": 6413,
      "ìĬ¤ê°Ģ": 6414,
      "ë¬¸ìĿĦ": 6415,
      "Ġscope": 6416,
      "lood": 6417,
      "ĠBar": 6418,
      "dy": 6419,
      "Ġë°ĶëŀĮ": 6420,
      "INE": 6421,
      "ìģ": 6422,
      "CD": 6423,
      "nergy": 6424,
      "GET": 6425,
      "Ġcenter": 6426,
      "kind": 6427,
      "_;": 6428,
      "modal": 6429,
      "tegory": 6430,
      "Ġcustom": 6431,
      "clear": 6432,
      "ĠâĵĴ": 6433,
      "uation": 6434,
      "NavBar": 6435,
      "Ġê±°ìĿĺ": 6436,
      "Ġestablish": 6437,
      "Tab": 6438,
      "ĠìĹħì²´": 6439,
      "req": 6440,
      "ìĦ±ìĿĢ": 6441,
      "formance": 6442,
      "ORD": 6443,
      "There": 6444,
      "itte": 6445,
      "Ġexcept": 6446,
      "ĠìĿ´ìłľ": 6447,
      "cr": 6448,
      "Ġstude": 6449,
      "ĠÃł": 6450,
      "Ġëĭ¹ìĭł": 6451,
      "ĠRep": 6452,
      "Ġdeli": 6453,
      "Ġheart": 6454,
      "ê³¤": 6455,
      "ë¡¤": 6456,
      "(:": 6457,
      "ìĺ¥": 6458,
      "Pass": 6459,
      "gent": 6460,
      "ĠĠĠĉ": 6461,
      "Ġ2000": 6462,
      "uid": 6463,
      "bum": 6464,
      "bin": 6465,
      "Ġinside": 6466,
      "&#": 6467,
      "Ġsens": 6468,
      "nifica": 6469,
      "ĠìĤ´íİ´": 6470,
      "ĠLog": 6471,
      "Application": 6472,
      "Ġìłķìĥģ": 6473,
      "Ġfields": 6474,
      "mend": 6475,
      "SO": 6476,
      "Ġëĭµ": 6477,
      "Ġsays": 6478,
      "ìĽĮíģ¬": 6479,
      "Ġperiod": 6480,
      "rief": 6481,
      "eak": 6482,
      "rip": 6483,
      "Ġstop": 6484,
      "41": 6485,
      "Ġì°©": 6486,
      "connect": 6487,
      "framework": 6488,
      "mental": 6489,
      "Ġë¸Įëŀľëĵľ": 6490,
      "Ġ\"\\": 6491,
      "replace": 6492,
      "bon": 6493,
      "Ġwanted": 6494,
      "Ġles": 6495,
      "apping": 6496,
      "Ġmis": 6497,
      "Ġìĸ¼ë§Ī": 6498,
      "outer": 6499,
      "Device": 6500,
      "Ġpast": 6501,
      "cpp": 6502,
      "ë¯¼ì£¼": 6503,
      "urthe": 6504,
      "ìķĮ": 6505,
      "ĠìĮ": 6506,
      "ises": 6507,
      "Ġrelations": 6508,
      "Ġfathe": 6509,
      "Ġson": 6510,
      "ê³Ħë¥¼": 6511,
      "ops": 6512,
      "Ġfront": 6513,
      "ìı": 6514,
      "ever": 6515,
      "titu": 6516,
      "ĠëĵľëŁ¬": 6517,
      "ita": 6518,
      "ĠBG": 6519,
      "ceive": 6520,
      "Ġhar": 6521,
      "ĠëĲĲëĭ¤": 6522,
      "ĠìĿ¼ìĿ´": 6523,
      "ìľ¼ë¡ľìĦľ": 6524,
      "ĠëŁ¬": 6525,
      "Ġë¹Ħíķ´": 6526,
      "lash": 6527,
      "ĠEd": 6528,
      ";->": 6529,
      "Ġfather": 6530,
      "Ġ2008": 6531,
      "Ġapi": 6532,
      "Ġëħ¸ëł¥": 6533,
      "export": 6534,
      "Ġdoor": 6535,
      "Ġlive": 6536,
      "Ġì¸¡ìłķ": 6537,
      "ensor": 6538,
      "break": 6539,
      "ë®¤": 6540,
      "ì£ł": 6541,
      "ĠìĺģìĹŃ": 6542,
      "ĠëĦĺìĸ´": 6543,
      "Left": 6544,
      "lite": 6545,
      "ran": 6546,
      "Ġpref": 6547,
      "ĠEuro": 6548,
      "rb": 6549,
      "ĠìłĦëŀµ": 6550,
      "Ġdue": 6551,
      "ì²Ļ": 6552,
      "ĠAfter": 6553,
      "Ġìĺ¤ëĬĶ": 6554,
      "hover": 6555,
      "ering": 6556,
      "Ġos": 6557,
      "Api": 6558,
      "`,": 6559,
      "oost": 6560,
      "urther": 6561,
      "ya": 6562,
      "Vector": 6563,
      "ĠëĬĲëĤ": 6564,
      "Ġnecess": 6565,
      "Ġìĺ¬ëĿ¼": 6566,
      "ĊĉĠĠĠĠĠĠĠĠ": 6567,
      "ì¶ĺ": 6568,
      "Ġminutes": 6569,
      "ë²¨": 6570,
      ">.": 6571,
      "ĠST": 6572,
      "ĠĠĠĠĉ": 6573,
      "rec": 6574,
      "Ġêµ¬ì¶ķ": 6575,
      "Ġsite": 6576,
      "Ġ('": 6577,
      "Ġì¤ĳìķĻ": 6578,
      "ĠìĿ´ìĥģìĿĺ": 6579,
      "Ġproperties": 6580,
      "íĻį": 6581,
      "ìŀĲìĻĢ": 6582,
      "Ġsentence": 6583,
      "Ġproto": 6584,
      "ê²¼": 6585,
      "ught": 6586,
      "ĠìĹ¬ê¸°": 6587,
      "equals": 6588,
      "ĠìĭľíĹĺ": 6589,
      "Tests": 6590,
      "Ġì£¼ë³Ģ": 6591,
      "ì§ĢìĿĺ": 6592,
      "Ġdelete": 6593,
      "Ð»": 6594,
      "Reader": 6595,
      "Ġê°ľìµľ": 6596,
      "ĠNorth": 6597,
      "lates": 6598,
      "çĶ": 6599,
      "Ġ2009": 6600,
      "Ġcost": 6601,
      "ming": 6602,
      "Ġnormal": 6603,
      "Ġìŀ¥ìķł": 6604,
      "ìĸ´ëĤľ": 6605,
      "ì§ĢëĤľ": 6606,
      "click": 6607,
      "ìĦ±ìĹĲ": 6608,
      "Ġang": 6609,
      "ë¡ľëĵľ": 6610,
      "Ġincluded": 6611,
      "íŀĮ": 6612,
      "Ġlooking": 6613,
      "ãĢı": 6614,
      "rating": 6615,
      "Ġì¢ĭìķĦ": 6616,
      "cape": 6617,
      "wo": 6618,
      "enter": 6619,
      "Ġëª¨íĺķ": 6620,
      "ĠChar": 6621,
      "Ġë°Ľê³ł": 6622,
      "Ġsubject": 6623,
      "exception": 6624,
      "ìĸ¼": 6625,
      "ìŀĲëĵ¤ìĿ´": 6626,
      "ìŀ¥ìĹĲ": 6627,
      "ë¯¼êµŃ": 6628,
      "ëļ": 6629,
      "aves": 6630,
      "Ġì¢Ģ": 6631,
      "'.": 6632,
      "ĠãĢĬ": 6633,
      "Ġë¯¿": 6634,
      "ĠëıĦìŀħ": 6635,
      "Ġê°Ģì§Ħ": 6636,
      "Ġfailed": 6637,
      "prot": 6638,
      "Ġ32": 6639,
      "ds": 6640,
      "----------------------------------------------------------------": 6641,
      "Ġsupported": 6642,
      "íĩ´": 6643,
      "atte": 6644,
      "ĠìĿĮìķħ": 6645,
      "ĠíŀĪ": 6646,
      "ãĢį": 6647,
      "Ġê±°ëŀĺ": 6648,
      "Ġë°ĶìĿ´": 6649,
      "PL": 6650,
      "second": 6651,
      "Ġcache": 6652,
      "ê¸°ê°Ħ": 6653,
      "ĠìŀĪê²Į": 6654,
      "lap": 6655,
      "Ġê¸Ģë¡ľë²Į": 6656,
      "ĠìĬ¤ë§ĪíĬ¸": 6657,
      "pedef": 6658,
      "orizont": 6659,
      "ĠíĺĦìĭ¤": 6660,
      "mers": 6661,
      "Ġgl": 6662,
      "Ġexc": 6663,
      "ëĮĢìĿĺ": 6664,
      "Invalid": 6665,
      "copy": 6666,
      "ĠTrue": 6667,
      "vm": 6668,
      "ĠRem": 6669,
      "An": 6670,
      "Go": 6671,
      "....": 6672,
      "ĠSi": 6673,
      "Ġbad": 6674,
      ")]": 6675,
      "Ġì¶©ë¶Ħ": 6676,
      "AND": 6677,
      "Ġgir": 6678,
      "ĠëĶĶì§ĢíĦ¸": 6679,
      "ê°Ģê°Ģ": 6680,
      "ending": 6681,
      "Ġíĺģ": 6682,
      "Ġfelt": 6683,
      "Order": 6684,
      "Ġfam": 6685,
      "ëĥ¥": 6686,
      "disabled": 6687,
      "gor": 6688,
      "Ġheld": 6689,
      "ĠìŀĦìĥģ": 6690,
      "Ġoffer": 6691,
      "Ġtree": 6692,
      "Ġfuture": 6693,
      "ìľ¼ë¡ľëĬĶ": 6694,
      "After": 6695,
      "Ġsamp": 6696,
      "Values": 6697,
      "Ġquick": 6698,
      "lying": 6699,
      "ëĲ©ëĭĪëĭ¤": 6700,
      "Ġdir": 6701,
      "54": 6702,
      "Ġìĭľì¦Į": 6703,
      "tate": 6704,
      "cor": 6705,
      "Ġconc": 6706,
      "Ġdecl": 6707,
      "Ġselected": 6708,
      "ĠWest": 6709,
      "HO": 6710,
      "uff": 6711,
      "SET": 6712,
      "Ġhappe": 6713,
      "fn": 6714,
      "ëĥĪëĭ¤": 6715,
      "ìĺģìĸ´ë¡ľ": 6716,
      "ĠëĤĺëĿ¼": 6717,
      "Ġbyt": 6718,
      "íĶĦë¡ľ": 6719,
      "Ġì¹ľêµ¬": 6720,
      "ATA": 6721,
      "oose": 6722,
      "Ġexperience": 6723,
      "Ġtaken": 6724,
      "Ġthread": 6725,
      "focus": 6726,
      "Ġë§Įëĵł": 6727,
      "cia": 6728,
      "ä»": 6729,
      "52": 6730,
      "Ġ})": 6731,
      "ĠMap": 6732,
      "ë¶ĢìĿĺ": 6733,
      "Ġsession": 6734,
      "ë¦¬ì§Ģ": 6735,
      "ĠìĽĢ": 6736,
      "settings": 6737,
      "Down": 6738,
      "ë°ĸìĹĲ": 6739,
      "Ġqui": 6740,
      "Ġì»´": 6741,
      "Ġmoney": 6742,
      "system": 6743,
      "Ġdem": 6744,
      "card": 6745,
      "æĸ": 6746,
      "Ġdet": 6747,
      "Ġexist": 6748,
      "{}": 6749,
      "âĳ": 6750,
      "ities": 6751,
      "çļ": 6752,
      "Ġfive": 6753,
      "aller": 6754,
      "Ġmakes": 6755,
      "Ġcollection": 6756,
      "callback": 6757,
      "DD": 6758,
      "ĠInt": 6759,
      "illio": 6760,
      "Ġê·¸ëŀĺìĦľ": 6761,
      "ained": 6762,
      "ĨĴ": 6763,
      "transform": 6764,
      "Ġfocus": 6765,
      "Ġste": 6766,
      "Ġë¶Ģì¡±": 6767,
      "Metadata": 6768,
      "ĠìĤ¬ë§Ŀ": 6769,
      "fully": 6770,
      "Ġcut": 6771,
      "ëħĦê°Ħ": 6772,
      "Ġ80": 6773,
      "RA": 6774,
      "tsd": 6775,
      "ĠWa": 6776,
      "Ġinstall": 6777,
      "Ġheader": 6778,
      "ìŀ¥ìķł": 6779,
      "ë·°": 6780,
      "Ġecho": 6781,
      "cribe": 6782,
      "íķľëĭ¤ê³ł": 6783,
      "ĠìķĬìķĦ": 6784,
      "Args": 6785,
      "čĊčĊĠĠĠĠĠĠĠ": 6786,
      "ĠëĮĢìĭł": 6787,
      "Ġgeneral": 6788,
      "Ġcharacter": 6789,
      "selves": 6790,
      "Ġbyte": 6791,
      "Ġê°ĢëĬ¥íķľ": 6792,
      "ĠìĿĺê²¬": 6793,
      "Ġlit": 6794,
      "ìĹĦ": 6795,
      "89": 6796,
      "vas": 6797,
      "Ġsimp": 6798,
      "rms": 6799,
      "Ġ(\"": 6800,
      "Ġê°ĲìĹ¼": 6801,
      "dim": 6802,
      "ĠìĹĨìĸ´": 6803,
      "eath": 6804,
      "Ġmajor": 6805,
      "Ġê²½ìļ°ìĹĲëĬĶ": 6806,
      "global": 6807,
      "Ġcance": 6808,
      "Ġweek": 6809,
      "ĠìłľìĻ¸": 6810,
      "Ġobjects": 6811,
      "ìĭľíĹĺ": 6812,
      "space": 6813,
      "51": 6814,
      "ĠìķĬëĭ¤": 6815,
      ">();": 6816,
      "ëĵ¤ìĹĲ": 6817,
      "ites": 6818,
      "ryp": 6819,
      "Ġì°¨ì§Ģ": 6820,
      "ìĿ¼ë¶ĢíĦ°": 6821,
      "inte": 6822,
      "iant": 6823,
      "Bytes": 6824,
      "Ġëª¨ìĬµìĿĦ": 6825,
      "Ġdownload": 6826,
      "URE": 6827,
      "Ġê·¸ë¦¼": 6828,
      "ounter": 6829,
      "access": 6830,
      "Policy": 6831,
      "application": 6832,
      "ĠJSON": 6833,
      "ëĭ¨ì²´": 6834,
      "Ġìłķë³´ë¥¼": 6835,
      "Ġrem": 6836,
      "Ġseason": 6837,
      "ëĮĢíķĻ": 6838,
      "ìĦ¸ë¥¼": 6839,
      "ĠCON": 6840,
      "Ġìłľíķľ": 6841,
      "Title": 6842,
      "Ġmother": 6843,
      "Body": 6844,
      "etty": 6845,
      "ìĩĦ": 6846,
      "Ġíķĺë£¨": 6847,
      "Ġturned": 6848,
      "ĠíĿĲ": 6849,
      "ìłľê°Ģ": 6850,
      "ìķ½ìĿĦ": 6851,
      "íħĲì¸ł": 6852,
      "imes": 6853,
      "ĠíķĦìļĶíķĺëĭ¤": 6854,
      "vy": 6855,
      "Ġauth": 6856,
      "Ġpress": 6857,
      "orizontal": 6858,
      "ective": 6859,
      "ĠëģĮ": 6860,
      "ìĻĢìĿĺ": 6861,
      "Ø§": 6862,
      "Ġdeath": 6863,
      "Ġpy": 6864,
      "ĠìĦ¼": 6865,
      "Ġëħ¹": 6866,
      "Ġund": 6867,
      "__(": 6868,
      "ari": 6869,
      "tele": 6870,
      "Meta": 6871,
      "Ġìļ´ëıĻ": 6872,
      "Ġmean": 6873,
      "íĮĮíĬ¸": 6874,
      "ĠìĬ¬": 6875,
      "ë¬¼ìĿ´": 6876,
      "testing": 6877,
      "Ġetc": 6878,
      "ĠCor": 6879,
      "Ġrath": 6880,
      "Ġsignifica": 6881,
      "ĠìŀĳìĿĢ": 6882,
      "Ġrathe": 6883,
      "animation": 6884,
      "Ġrather": 6885,
      "ìŀĲìĹĲê²Į": 6886,
      "boolean": 6887,
      "Ġhowever": 6888,
      "bootstrap": 6889,
      "ĠíĬ¹ì§ķ": 6890,
      "Ġë§Īì§Ģë§ī": 6891,
      "ĵ¨": 6892,
      "ĠVe": 6893,
      "Sig": 6894,
      "like": 6895,
      "Ġfriends": 6896,
      "OK": 6897,
      "romise": 6898,
      "ĠëıĻìĿ¼": 6899,
      "êº": 6900,
      "ĠThen": 6901,
      "aries": 6902,
      "Obj": 6903,
      "Ġalmost": 6904,
      "AV": 6905,
      "ORM": 6906,
      "Ġë³Ģê²½": 6907,
      "Ġê¸°ëĬ¥ìĿĦ": 6908,
      "Num": 6909,
      "env": 6910,
      "ĠìĹŃìĤ¬": 6911,
      "Ġrowspan": 6912,
      "ĠìłĦëĭ¬": 6913,
      "Ġspec": 6914,
      "Ġclo": 6915,
      "Ġê¸°ê´Ģ": 6916,
      "Ġneeds": 6917,
      "Ġanswer": 6918,
      "ëĭ¥": 6919,
      "Ġ<=": 6920,
      "expected": 6921,
      "Ġpaper": 6922,
      "Ġign": 6923,
      "íķľíİ¸": 6924,
      "Ġwoman": 6925,
      "87": 6926,
      "Ġëĭ¬ë¦¬": 6927,
      "Ġíķ´ìķ¼": 6928,
      "ĠBGCOLOR": 6929,
      "ests": 6930,
      "Ġedu": 6931,
      "Sw": 6932,
      "Ġprepar": 6933,
      "Ġê²½ìĺģ": 6934,
      "53": 6935,
      "sql": 6936,
      "cloud": 6937,
      "tist": 6938,
      "ously": 6939,
      "Ġacti": 6940,
      "vector": 6941,
      "ĠëĦ£": 6942,
      "Ġitems": 6943,
      "Ġëĵ±ìľ¼ë¡ľ": 6944,
      "Queue": 6945,
      "Ġconne": 6946,
      "ĠìłĦê¸°": 6947,
      "ission": 6948,
      "Ġweb": 6949,
      "Ġinit": 6950,
      "Ġbene": 6951,
      "Ġë§ĲìĿĦ": 6952,
      "pte": 6953,
      "ìĿ´ê¸°": 6954,
      "ond": 6955,
      "Ġê²°íķ©": 6956,
      "eque": 6957,
      "izing": 6958,
      "Ġunsigned": 6959,
      "Ġì¡°ìĦ±": 6960,
      "MM": 6961,
      "čĊčĊ": 6962,
      "Right": 6963,
      "TS": 6964,
      "ĠRE": 6965,
      "Ġsepara": 6966,
      "oll": 6967,
      "fony": 6968,
      "umer": 6969,
      "Ġsection": 6970,
      "Ġë§ĮëĤĺ": 6971,
      "ĠìĹ¼": 6972,
      "WE": 6973,
      "Ġbytes": 6974,
      "ĠëıĻìĭľìĹĲ": 6975,
      "ĠMath": 6976,
      "ellow": 6977,
      "ĠNational": 6978,
      "illion": 6979,
      "Ġê²¬": 6980,
      "ĠìķĪìłķ": 6981,
      "Ġmg": 6982,
      "Ġìĥī": 6983,
      "ĠìĿ¸ìĭĿ": 6984,
      "ë¤Ħ": 6985,
      "cking": 6986,
      "Ġsix": 6987,
      "Render": 6988,
      "Ġìĭ¤íĹĺ": 6989,
      "Ġbring": 6990,
      "Work": 6991,
      "ê°ĢëĬ¥": 6992,
      "admin": 6993,
      "_{": 6994,
      "Ġbehind": 6995,
      "mfony": 6996,
      "bert": 6997,
      "ĠìĹŃíķłìĿĦ": 6998,
      "odi": 6999,
      "Ġtheme": 7000,
      "ê²łëĭ¤ëĬĶ": 7001,
      "Ġplayers": 7002,
      "pho": 7003,
      "rown": 7004,
      "padding": 7005,
      "ĠëŃ": 7006,
      "Classes": 7007,
      "Ġìµľì´Ī": 7008,
      "Ġê¹¨": 7009,
      "ìłĦìŀĲ": 7010,
      "Ġcare": 7011,
      "ĠMr": 7012,
      "=\"/": 7013,
      "ATH": 7014,
      "Debug": 7015,
      "chi": 7016,
      "ĠíķĺìĹ¬": 7017,
      "Ġìĭ¸": 7018,
      "Ġris": 7019,
      "____": 7020,
      "ìĥĿíĻľ": 7021,
      "gnos": 7022,
      "Writer": 7023,
      "Ġstrong": 7024,
      "ĠìĻ¸êµŃ": 7025,
      "ĠSta": 7026,
      "Ġdirectory": 7027,
      "nology": 7028,
      "Ġthird": 7029,
      "Ġìĸ´ëłµ": 7030,
      "Ġinline": 7031,
      "uter": 7032,
      "Ġpoints": 7033,
      "rodu": 7034,
      "ĠìŀĪìĸ´ìĦľ": 7035,
      "Ġground": 7036,
      "sec": 7037,
      "ĠWeb": 7038,
      "ìĦ¸ê³Ħ": 7039,
      "GE": 7040,
      "Parent": 7041,
      "ĠAb": 7042,
      "READ": 7043,
      "coder": 7044,
      "Ġì¶ľìĭľ": 7045,
      "HP": 7046,
      "coi": 7047,
      "allow": 7048,
      "vie": 7049,
      "tea": 7050,
      "footer": 7051,
      "ĠìŀĲë¦¬": 7052,
      "ĠError": 7053,
      "Ã¼": 7054,
      "coded": 7055,
      "ĠíĺĲ": 7056,
      "ĠìĤ¬ëŀĮëĵ¤ìĿ´": 7057,
      "ëĶĶìĺ¤": 7058,
      "Ġraise": 7059,
      "ìĭľì¼ľ": 7060,
      "Pi": 7061,
      "Stack": 7062,
      "axis": 7063,
      "ribution": 7064,
      "ìĪĺë¡Ŀ": 7065,
      "84": 7066,
      "Root": 7067,
      "Ġmaterial": 7068,
      "ëĵ±íķĻêµĲ": 7069,
      "Ġweight": 7070,
      "Qu": 7071,
      "Ġoffice": 7072,
      "Ġì¡°ê¸Ī": 7073,
      "nant": 7074,
      "Ġsimilar": 7075,
      "ques": 7076,
      "ĠEnd": 7077,
      "ìĽ¨ìĸ´": 7078,
      "Ġê³¼ê±°": 7079,
      "ĠSu": 7080,
      "ì¹ĺê°Ģ": 7081,
      "Colle": 7082,
      "ĠíĸīìĤ¬": 7083,
      "Ġexpression": 7084,
      "ĠìĦ¤ìłķ": 7085,
      "ë¬¼ìĿĺ": 7086,
      "IE": 7087,
      "Ġbuilding": 7088,
      "Ali": 7089,
      "Ġrelative": 7090,
      "čĊĠĠĠĠĠĠĠĠĠĠĠĠĠĠĠĠĠĠĠĠĠĠĠĠĠĠĠĠ": 7091,
      "itter": 7092,
      "Ġíķµìĭ¬": 7093,
      "ë³´ê³ł": 7094,
      "ĠSw": 7095,
      "ĠìłķíĻķ": 7096,
      "Ġì¿ł": 7097,
      "Boolean": 7098,
      "weight": 7099,
      "Ġstay": 7100,
      "Ġsong": 7101,
      "commend": 7102,
      "ami": 7103,
      "Storage": 7104,
      "Multi": 7105,
      "Ġitself": 7106,
      "Ġsubs": 7107,
      "Ġphys": 7108,
      "Enabled": 7109,
      "Ġì¡°ê±´": 7110,
      "Ġhot": 7111,
      "havior": 7112,
      "erms": 7113,
      "Byt": 7114,
      "Ġëī´": 7115,
      "ĠìłķìĿĺ": 7116,
      "Ġrule": 7117,
      "Ġpick": 7118,
      "Ġë¬¸ìłľê°Ģ": 7119,
      "Ġ++": 7120,
      "plugins": 7121,
      "ipa": 7122,
      "ĠHTML": 7123,
      "Ġìļ°ë¦¬ëĬĶ": 7124,
      "Ġsimple": 7125,
      "cide": 7126,
      "Byte": 7127,
      "ĠPh": 7128,
      "Ġann": 7129,
      "à¥": 7130,
      "ìłĦìĹĲ": 7131,
      "asing": 7132,
      "Ġdark": 7133,
      "ìĹħì²´": 7134,
      "modules": 7135,
      "ëįĶëĿ¼ëıĦ": 7136,
      "}\"": 7137,
      "ë¶Ģê°Ģ": 7138,
      "Ġê°ĢëĬ¥ìĦ±ìĿ´": 7139,
      "Ġoutside": 7140,
      "scal": 7141,
      "cted": 7142,
      "íķĺëĬĶëį°": 7143,
      "Widget": 7144,
      "Ġprobab": 7145,
      "ĠìĿ´ìķ¼ê¸°": 7146,
      "CA": 7147,
      "Ġì£¼ìĿĺ": 7148,
      "press": 7149,
      "ëĭ¤ë©´": 7150,
      "ĠëĤ´ëł¤": 7151,
      "ĠPy": 7152,
      "parameter": 7153,
      "ëĮĢìĹĲ": 7154,
      "Ġë³´ëĬĶ": 7155,
      "ê·¸ë£¹": 7156,
      "endar": 7157,
      "ëıĦìĭľ": 7158,
      "Ġcorrect": 7159,
      "íĸĪì§Ģë§Į": 7160,
      "Ġgar": 7161,
      "allet": 7162,
      "ëŁīìĿ´": 7163,
      "Ġìŀ¥ê´Ģ": 7164,
      "ìĽĢìĿ´": 7165,
      "aj": 7166,
      "Mock": 7167,
      "lon": 7168,
      "cell": 7169,
      "Ġcy": 7170,
      "Ġmention": 7171,
      "ensions": 7172,
      "ĠGene": 7173,
      "Ġwritten": 7174,
      "Long": 7175,
      "ided": 7176,
      "ĠìķĮìķĦ": 7177,
      "čĊĠĠĠĠĠĠĠĠĠĠĠĠĠĠĠĠĠĠĠĠĠĠĠĠĠĠĠĠĠ": 7178,
      "ĠTHE": 7179,
      "Ġ'/": 7180,
      "Ġsound": 7181,
      "ae": 7182,
      "Ġinde": 7183,
      "Ġbr": 7184,
      "high": 7185,
      "zed": 7186,
      "ĠìĿĺíķľ": 7187,
      "ĠëĲĺìĹĪ": 7188,
      "ĠSub": 7189,
      "Ġê±´ìĦ¤": 7190,
      "Ġeverything": 7191,
      "ìłĦìŀ¬": 7192,
      "Ġnews": 7193,
      "Ġê±": 7194,
      "ìĽĲìĹĲ": 7195,
      ".##": 7196,
      "Ġ1000": 7197,
      "LES": 7198,
      "iagnos": 7199,
      "panel": 7200,
      "Ġ70": 7201,
      "rib": 7202,
      "63": 7203,
      "stack": 7204,
      "Ġë°Ľìķĺëĭ¤": 7205,
      "ĠAmerica": 7206,
      "ĠëĲĺê³ł": 7207,
      "Ġhands": 7208,
      "ëłī": 7209,
      "refore": 7210,
      "Ġìĺ¨ëĿ¼ìĿ¸": 7211,
      "ots": 7212,
      "oring": 7213,
      "cp": 7214,
      "Ġìĸµ": 7215,
      "spec": 7216,
      "Ind": 7217,
      "97": 7218,
      "raft": 7219,
      "nline": 7220,
      "pla": 7221,
      "year": 7222,
      "Ġìı": 7223,
      "ëıĦìĹĲ": 7224,
      "Ġpopu": 7225,
      "ëĿ¼ë§Ī": 7226,
      "ëĮ": 7227,
      "Ġbur": 7228,
      "cture": 7229,
      "SION": 7230,
      "Ġê¿Ī": 7231,
      "Ġjson": 7232,
      "Ġsol": 7233,
      "scale": 7234,
      "inge": 7235,
      "Ġrespons": 7236,
      "ford": 7237,
      "ĠIO": 7238,
      "ìĸ´ìļĶ": 7239,
      "ë¥´ê³ł": 7240,
      "ĠHow": 7241,
      "rome": 7242,
      "Xml": 7243,
      "62": 7244,
      "Has": 7245,
      "PR": 7246,
      "ĠìĿĺë£Į": 7247,
      "Ġê³µìĭĿ": 7248,
      "Ġforce": 7249,
      "ĠìµľìĨĮ": 7250,
      "ĠìĽĢì§ģ": 7251,
      "ĊĠĊ": 7252,
      "Ġcli": 7253,
      "Ġìļ°ëł¤": 7254,
      "Ġíķĺë©´": 7255,
      "Ġ2007": 7256,
      "ĠChris": 7257,
      "åŃ": 7258,
      "Ġë¹ĦíĮĲ": 7259,
      "Ġê°Ģê¹Į": 7260,
      "Rect": 7261,
      "ìĨĮëħĦ": 7262,
      "Ġphoto": 7263,
      "ĠíĨµíķ©": 7264,
      "çļĦ": 7265,
      "Copy": 7266,
      "mon": 7267,
      "amb": 7268,
      "ëĭĿ": 7269,
      "Ġattemp": 7270,
      "ĠĠĊĠ": 7271,
      "ìĥģìĹĲ": 7272,
      "iga": 7273,
      "ĠìŀĶ": 7274,
      "ìľĦìĹĲ": 7275,
      "Ġdeep": 7276,
      "ìľ¼ë¡ľë¶ĢíĦ°": 7277,
      "ĠíķĺìĺĢëĭ¤": 7278,
      "illed": 7279,
      "Ġì§Ģìłķ": 7280,
      "ĠIS": 7281,
      "ìĿ¼ê¹Įì§Ģ": 7282,
      "Ġë§ĪìĿĦ": 7283,
      "âĢ¢": 7284,
      "čĊĠĠĠĠĠĠĠĠĠĠĠĠĠĠĠĠĠĠĠĠĠĠĠĠĠĠĠĠĠĠ": 7285,
      "ëłĪìĬ¤": 7286,
      "tone": 7287,
      "âĢĻ,": 7288,
      "ĠAL": 7289,
      "ĠìľłëŁ½": 7290,
      "ĊĉĠĠĠĠĠĠĠĠĠ": 7291,
      "tar": 7292,
      "Icon": 7293,
      "ply": 7294,
      "Ġchanged": 7295,
      "Ġcross": 7296,
      "limit": 7297,
      "ì¢Į": 7298,
      "ered": 7299,
      "ìĿ¸ê°Ģ": 7300,
      "nated": 7301,
      "rows": 7302,
      "ìĿ´ìŀĲ": 7303,
      "ncip": 7304,
      "Ġì§Ģì§Ģ": 7305,
      "Ġcook": 7306,
      "nf": 7307,
      "Build": 7308,
      "ilities": 7309,
      "xx": 7310,
      "Ġune": 7311,
      "Ġvisit": 7312,
      "ĠìĹ¬íĸī": 7313,
      "Ġdetails": 7314,
      "Ġdatabase": 7315,
      "ĠìĤ¬ë¡Ģ": 7316,
      "begin": 7317,
      "Ġlea": 7318,
      "native": 7319,
      "termi": 7320,
      "dependency": 7321,
      "íľĺ": 7322,
      "ĠìĿ¼ìĿĦ": 7323,
      "Ġassociated": 7324,
      "ì§Ģì§Ģ": 7325,
      "lator": 7326,
      "coin": 7327,
      "printf": 7328,
      "êµ¬ë¥¼": 7329,
      "ĠValue": 7330,
      "íı¼": 7331,
      "Ġìĭ¤ìłľ": 7332,
      "Ġscript": 7333,
      "ĠìłĦìŀĲ": 7334,
      "Ġcr": 7335,
      "Ġdirection": 7336,
      "-->": 7337,
      "Ġnatur": 7338,
      "Ġreason": 7339,
      "Ġìĸ¼êµ´": 7340,
      "ediat": 7341,
      "Ã³n": 7342,
      "Ġple": 7343,
      "ëħĦë¶ĢíĦ°": 7344,
      "ĠURL": 7345,
      "Ġê¾¸": 7346,
      "TEST": 7347,
      "Ġinvoke": 7348,
      "Ġë¬´ëĭ¨ìłĦìŀ¬": 7349,
      "Ġart": 7350,
      "Ġê³¼íķĻ": 7351,
      "ê°Ķëĭ¤": 7352,
      "Ġíİ¼": 7353,
      "íķĺëįĺ": 7354,
      "čĊĠĠĠĠĠĠĠĠĠĠĠĠĠĠĠĠĠĠĠĠĠĠĠĠĠĠĠĠĠĠĠ": 7355,
      "Rule": 7356,
      "alls": 7357,
      "ìĸ´ëıĦ": 7358,
      "lank": 7359,
      "ĠGra": 7360,
      "Ġindust": 7361,
      "Ġgr": 7362,
      "ifie": 7363,
      "just": 7364,
      "How": 7365,
      "ìĿ´ëŀĢ": 7366,
      "ĠassertEquals": 7367,
      "Ġnamed": 7368,
      "FAULT": 7369,
      "uple": 7370,
      "ëł´": 7371,
      "bl": 7372,
      "Ġ\"/": 7373,
      "ifier": 7374,
      "istration": 7375,
      "keys": 7376,
      "ì½ĺ": 7377,
      "jection": 7378,
      "logical": 7379,
      "IR": 7380,
      "Ġ(*": 7381,
      "lust": 7382,
      "ĠíĻľìĦ±": 7383,
      "ĠìŀĪëįĺ": 7384,
      "alance": 7385,
      "ìĭ±": 7386,
      "ìĿ´ì§Ģë§Į": 7387,
      "cto": 7388,
      "Ġì¹¼": 7389,
      "attribute": 7390,
      "Ġidea": 7391,
      "Ġrender": 7392,
      "ĠìĭľìĦ¤": 7393,
      "Ġë¹Ħìļ©": 7394,
      "lide": 7395,
      "Ġhours": 7396,
      "Ġìĭłì²Ń": 7397,
      "icons": 7398,
      "Click": 7399,
      "ndon": 7400,
      "eact": 7401,
      "fields": 7402,
      "ĠìĨĮê°ľ": 7403,
      "ëŁ¬ìĬ¤": 7404,
      "Ġëĭ¤ìļ´": 7405,
      "ĠìŀĪê¸°": 7406,
      "ĠìĹ´ë¦°": 7407,
      "Ġactual": 7408,
      "ĠìłķëıĦë¡ľ": 7409,
      "ĠConst": 7410,
      "Ġtrying": 7411,
      "hank": 7412,
      "ĠVi": 7413,
      "Rec": 7414,
      "iables": 7415,
      "ìłĿ": 7416,
      "naps": 7417,
      "Ġcusto": 7418,
      "store": 7419,
      "Ġecono": 7420,
      "Ġì±": 7421,
      "ically": 7422,
      "SSERT": 7423,
      "Ġë³ĳìļ©": 7424,
      "ĠJe": 7425,
      "Ġíį¼": 7426,
      "izes": 7427,
      "Ġcombi": 7428,
      "IX": 7429,
      "ucture": 7430,
      "Ġgetting": 7431,
      "ë§¹": 7432,
      "ĠìķĦë²Ħ": 7433,
      "Ġsense": 7434,
      "wrap": 7435,
      "61": 7436,
      "EM": 7437,
      "quired": 7438,
      "Ġê²ĥìŀħëĭĪëĭ¤": 7439,
      "Ġ500": 7440,
      "Ġpas": 7441,
      "ëĭĲ": 7442,
      "Ġpackage": 7443,
      "Ġdevelopment": 7444,
      "Ġround": 7445,
      "tools": 7446,
      "Ġeng": 7447,
      "Dialog": 7448,
      "ìĽĥ": 7449,
      "PS": 7450,
      "ìĻĶ": 7451,
      "Ġíķĺë©°": 7452,
      "dern": 7453,
      "acters": 7454,
      "Ġwriting": 7455,
      "Ġenergy": 7456,
      "ĠìĿ´íķĺ": 7457,
      "Ġfurther": 7458,
      "ìķŀ": 7459,
      "ĠìľĦìĽĲ": 7460,
      "ĠëłĪìĿ´": 7461,
      "ledge": 7462,
      "ello": 7463,
      "Ġë§¤ì¶ľ": 7464,
      "Transaction": 7465,
      "double": 7466,
      "Ġresearch": 7467,
      "ĠMin": 7468,
      "íĵ¨": 7469,
      "ĠAcc": 7470,
      "Ġarticle": 7471,
      "fg": 7472,
      "'))": 7473,
      "bt": 7474,
      "ìļ´ëıĻ": 7475,
      "ĠLO": 7476,
      "toggle": 7477,
      "Ġè": 7478,
      ".*": 7479,
      "Timeout": 7480,
      "grid": 7481,
      "Ġê°ĳ": 7482,
      "Descriptor": 7483,
      "ĠìĦ¤ëªħíĸĪëĭ¤": 7484,
      "ĠìĪĻ": 7485,
      "Ġê·¸ëłĩê²Į": 7486,
      "rature": 7487,
      "ÃŃa": 7488,
      "ĠRef": 7489,
      "Ġvia": 7490,
      "Ġdisco": 7491,
      "CTION": 7492,
      "Ðº": 7493,
      "ĠRed": 7494,
      "reated": 7495,
      "Ġë¶Ģëĭ´": 7496,
      "Ġstudy": 7497,
      "ĠInst": 7498,
      "ìłĲìĿ´": 7499,
      "Ġìĺ¤ëĬĺ": 7500,
      "íĸĪìĿĦ": 7501,
      "Fields": 7502,
      "Ġcomplete": 7503,
      "ĠìŀĳìĦ±": 7504,
      "ĠìļĶì²Ń": 7505,
      "Ġìłĳê·¼": 7506,
      "ĠìĬ¤ìĬ¤ë¡ľ": 7507,
      "illing": 7508,
      "ìĿ¸íĬ¸": 7509,
      "Ġìķŀìľ¼ë¡ľ": 7510,
      "AGE": 7511,
      "virtual": 7512,
      "tem": 7513,
      "pter": 7514,
      "Ġactually": 7515,
      "ĠìĥĿìĦ±": 7516,
      "ester": 7517,
      "Ġsettings": 7518,
      "WS": 7519,
      "ë°ĶìĿ´": 7520,
      "atoms": 7521,
      "ĠCl": 7522,
      "Ġturn": 7523,
      "ĠëĿ¼ìĿ´": 7524,
      "Graph": 7525,
      "Ġbirt": 7526,
      "Ġservices": 7527,
      "Ġavoid": 7528,
      "Us": 7529,
      "íĪ¬ìĹ¬": 7530,
      "istent": 7531,
      "ë¶Ļ": 7532,
      "Ġfra": 7533,
      "ì§Ģë°©": 7534,
      "Ġnorth": 7535,
      ";<": 7536,
      "Ġinstal": 7537,
      "ìłķì±ħ": 7538,
      "ìħĶ": 7539,
      "Ġfire": 7540,
      "spring": 7541,
      "Ġsci": 7542,
      "ĠìĦ¬": 7543,
      "mock": 7544,
      "ĠìłĦìĹĲ": 7545,
      "íĤ¹": 7546,
      "Ġmag": 7547,
      "Ġìķ¡": 7548,
      "ëĩ¨": 7549,
      "Ġê·¸ëĮĢë¡ľ": 7550,
      "Ġìµľì¢ħ": 7551,
      "ĠRun": 7552,
      "ëª»": 7553,
      "ĠíĶĦëŀĳ": 7554,
      "(-": 7555,
      "ìĭľíĤ¤ëĬĶ": 7556,
      "success": 7557,
      "Ġtaking": 7558,
      "=\"../../../": 7559,
      "ĠPr": 7560,
      "draw": 7561,
      "ĠEvent": 7562,
      "joy": 7563,
      "conf": 7564,
      "ĠëĪĦêµ¬": 7565,
      "gar": 7566,
      "Ġave": 7567,
      "tination": 7568,
      "ĊĠĠĠĠĉ": 7569,
      "Ġì¶ľìĭł": 7570,
      "åĲ": 7571,
      "Ġì´ī": 7572,
      "txt": 7573,
      "ully": 7574,
      "pop": 7575,
      "redenti": 7576,
      "ìĹĺ": 7577,
      "ê°ĳ": 7578,
      "ffici": 7579,
      "82": 7580,
      "Ġunique": 7581,
      "Ġgave": 7582,
      "uti": 7583,
      "zero": 7584,
      "cmd": 7585,
      "BA": 7586,
      "vels": 7587,
      "âĪ¼": 7588,
      "hadoop": 7589,
      "mitted": 7590,
      "gorith": 7591,
      "Ġ90": 7592,
      "Ġlite": 7593,
      "Ġvideo": 7594,
      "Definition": 7595,
      "gue": 7596,
      "Ġë§Ľ": 7597,
      "Ba": 7598,
      "ĠTime": 7599,
      "cies": 7600,
      "ĠìŀĲìĭłìĿ´": 7601,
      "uses": 7602,
      "Ġclaim": 7603,
      "íķĻìĥĿ": 7604,
      "ìĬ·": 7605,
      "ĠVal": 7606,
      "Ġëĵ£": 7607,
      "ĠìĶ¨": 7608,
      "ĠAug": 7609,
      "Ġç": 7610,
      "ëĿ¼ë©°": 7611,
      "Ġio": 7612,
      "Ġê²¨": 7613,
      "tons": 7614,
      "Ġê¸°ìĸµ": 7615,
      "CS": 7616,
      "arr": 7617,
      "EXT": 7618,
      "ĠIP": 7619,
      "Ġmsg": 7620,
      "Ġbed": 7621,
      "Cl": 7622,
      "Ġê·¸ëŁ°ëį°": 7623,
      "ĠOt": 7624,
      "Ġfav": 7625,
      "ĠìľĦíķĺìĹ¬": 7626,
      "Ġsoo": 7627,
      "ĠíĸīëıĻ": 7628,
      "Ġì¤ĳëĭ¨": 7629,
      "2021": 7630,
      "ture": 7631,
      "ĠíĮ¬": 7632,
      "ĠSpe": 7633,
      "}/": 7634,
      "ĠKing": 7635,
      "Uni": 7636,
      "Ġíĩ´": 7637,
      "ĠCol": 7638,
      "Ġbuilt": 7639,
      "zy": 7640,
      "ĠìŀĲëıĻì°¨": 7641,
      "Ġêµ¬ë§¤": 7642,
      "step": 7643,
      "lines": 7644,
      "ffective": 7645,
      "bly": 7646,
      "Ġê³µê³µ": 7647,
      "Tool": 7648,
      "ĠNOT": 7649,
      "ocket": 7650,
      "Display": 7651,
      "ĠRi": 7652,
      "uby": 7653,
      "Ġentir": 7654,
      "Ġsignal": 7655,
      "END": 7656,
      "Package": 7657,
      "arrow": 7658,
      "Ġvi": 7659,
      "Draw": 7660,
      "Ġsoon": 7661,
      "ĠAust": 7662,
      "Found": 7663,
      "ëıĻìĤ°": 7664,
      "íļĮê°Ģ": 7665,
      "Ġatoms": 7666,
      "Ġê²Ģì°°": 7667,
      "KEY": 7668,
      "Ġsus": 7669,
      "typeof": 7670,
      "ĠìĿ´ëģ": 7671,
      "JSON": 7672,
      "napshot": 7673,
      "Ġspo": 7674,
      "Ġ2006": 7675,
      "ĠìĦ¤ë¦½": 7676,
      "nos": 7677,
      "Ġlower": 7678,
      "rous": 7679,
      "ĠCopyright": 7680,
      "ë§Įíģ¼": 7681,
      "Ġ),": 7682,
      "Ġwait": 7683,
      "Ġimpact": 7684,
      "Ġìĭľê°ģ": 7685,
      "Ġcertain": 7686,
      "ando": 7687,
      "Ġrecent": 7688,
      "Ġvisualization": 7689,
      "Changed": 7690,
      "Ġì£¼ë¡ľ": 7691,
      "ì´ī": 7692,
      "blockList": 7693,
      "Assert": 7694,
      "ĠíĥĲ": 7695,
      "Ġdig": 7696,
      "split": 7697,
      "Ġëª»íķľ": 7698,
      "Ġë°¤": 7699,
      "Ġdeal": 7700,
      "Ġëª©ìłģ": 7701,
      "85": 7702,
      "edit": 7703,
      "Ġinstanceof": 7704,
      "Ġvariable": 7705,
      "tour": 7706,
      "íķĺê¸°ëıĦ": 7707,
      "HTML": 7708,
      "Ġcref": 7709,
      "Ġ2021": 7710,
      "tian": 7711,
      "Ġíķľëĭ¤ëĬĶ": 7712,
      "See": 7713,
      "Ġíĺ¹ìĿĢ": 7714,
      "Ġcommunity": 7715,
      "rify": 7716,
      "Ã¥": 7717,
      "material": 7718,
      "register": 7719,
      "coq": 7720,
      "Ñĥ": 7721,
      "Ġë¶Ģëª¨": 7722,
      "items": 7723,
      "Ġsave": 7724,
      "Ġhtml": 7725,
      "ìĦ±ìĿĺ": 7726,
      "ĠìĤ¬ëŀĮìĿĢ": 7727,
      "ĠëĳĲê³ł": 7728,
      "sl": 7729,
      "faces": 7730,
      "ĠìłĦìŁģ": 7731,
      "Ġpolitical": 7732,
      "Extension": 7733,
      "SL": 7734,
      "Ġuna": 7735,
      "Ġcompe": 7736,
      "Ġìī½ê²Į": 7737,
      "ĠìłĦíĻĺ": 7738,
      "multi": 7739,
      "ìļ°ë¦¬": 7740,
      "ĠìĬ¤íĬ¸": 7741,
      "Ġëĭ¤ìĿĮê³¼": 7742,
      "Ġbind": 7743,
      "ĠìłĦë¬¸ê°Ģ": 7744,
      "79": 7745,
      "Ġallowed": 7746,
      "ĠìĿ´ë¤Ħ": 7747,
      "ĠNow": 7748,
      "Ġê¶ģ": 7749,
      "password": 7750,
      "Ġíĭ°": 7751,
      "Ġbutton": 7752,
      "Ġsouth": 7753,
      "room": 7754,
      "ì¶°": 7755,
      "ëĮĢê°Ģ": 7756,
      "Ġà¤": 7757,
      "Ġì±ħìŀĦ": 7758,
      "åĪ": 7759,
      "åľ": 7760,
      "rved": 7761,
      "ìŀĲëĵ¤ìĿĢ": 7762,
      "Ġresources": 7763,
      "Ġbound": 7764,
      "Ġlonger": 7765,
      "ĠUser": 7766,
      "ë³´íĹĺ": 7767,
      "ĠìĨĮìŀ¬": 7768,
      "ìĿ´íģ¬": 7769,
      "ĠëĮĢêµ¬": 7770,
      "ìĦłê±°": 7771,
      "ìĺ¤ëĬĶ": 7772,
      "Ġlines": 7773,
      "ĠíĮĮìķħ": 7774,
      ")/": 7775,
      "xture": 7776,
      "Only": 7777,
      "ìĬ¤ëŁ¬": 7778,
      "Ġê°ĸê³ł": 7779,
      "ĠìĨĶ": 7780,
      "Ġì¤ĳìĭ¬ìľ¼ë¡ľ": 7781,
      "Ġsomeone": 7782,
      "sort": 7783,
      "Ġëįķ": 7784,
      "ĊĉĉĠ": 7785,
      "Database": 7786,
      "ournal": 7787,
      "Ġelem": 7788,
      "ë£Įë¥¼": 7789,
      "protobuf": 7790,
      "aml": 7791,
      "Ġpain": 7792,
      "íĿ¡": 7793,
      "icke": 7794,
      "Ġê´Ģê´ĳ": 7795,
      "Ġ35": 7796,
      "Ġwasn": 7797,
      "Ġapproach": 7798,
      "Ġdiffic": 7799,
      "language": 7800,
      "ìŀĲëĵ¤ìĿĺ": 7801,
      "ĠMc": 7802,
      "nchor": 7803,
      "ITY": 7804,
      "Ġ``": 7805,
      "Ġselection": 7806,
      "za": 7807,
      "ĠMole": 7808,
      "ë¶Īìĸ´": 7809,
      "ĠãĢİ": 7810,
      "ĊĊĉĉĉ": 7811,
      "queue": 7812,
      "home": 7813,
      "Ġcause": 7814,
      "free": 7815,
      "Ġë¹Į": 7816,
      "ands": 7817,
      "Ġformer": 7818,
      "Ġkeys": 7819,
      "Ġlost": 7820,
      "ĠEn": 7821,
      "ĠìłľëĮĢë¡ľ": 7822,
      "category": 7823,
      "ëĤĺë¬´": 7824,
      "Ġheard": 7825,
      "Ġadditional": 7826,
      "zer": 7827,
      "Ġvoice": 7828,
      "Ġë¹ĦìĬ·": 7829,
      "ĠÃ©": 7830,
      "ĠìĪ¨": 7831,
      "opt": 7832,
      "ĠCity": 7833,
      "Ġìļ°ìĦł": 7834,
      "Ġëĭ¤ë§Į": 7835,
      "ìĹĪëįĺ": 7836,
      "loor": 7837,
      "origi": 7838,
      "Ġtown": 7839,
      "Ro": 7840,
      "ĠìĨĮìĨį": 7841,
      "Ġì°¸ìĦĿ": 7842,
      "skip": 7843,
      "ì²´ë¥¼": 7844,
      "ACE": 7845,
      "Ġbelieve": 7846,
      "Scope": 7847,
      "ë²ķìĿĦ": 7848,
      "\",\"": 7849,
      "inner": 7850,
      "ëĮĢíķĻêµĲ": 7851,
      "bur": 7852,
      "ĠìĤ¬íļĮìłģ": 7853,
      "Ġë¬¸ìłľë¥¼": 7854,
      "nuary": 7855,
      "arp": 7856,
      "Ġê³ĦíļįìĿ´ëĭ¤": 7857,
      "nsert": 7858,
      "Ġê´Ģì°°": 7859,
      "Ġdb": 7860,
      "inline": 7861,
      "Ġsqu": 7862,
      "''": 7863,
      "kely": 7864,
      "unsigned": 7865,
      "Edit": 7866,
      "Ġsetting": 7867,
      "Ġpote": 7868,
      "Ġtoday": 7869,
      "Ġscale": 7870,
      "none": 7871,
      "impl": 7872,
      "Si": 7873,
      "gex": 7874,
      "ëĲĺë©°": 7875,
      "margin": 7876,
      "Ġleave": 7877,
      "ĠìĪĺì¶ľ": 7878,
      "Ġê³§": 7879,
      "TED": 7880,
      "ë¹Ħë¥¼": 7881,
      "ê³¼ëĬĶ": 7882,
      "PRE": 7883,
      "Ġtea": 7884,
      "aff": 7885,
      "insert": 7886,
      "ĠCons": 7887,
      "Ġfeeling": 7888,
      "Ġconsole": 7889,
      "Ġengine": 7890,
      "tices": 7891,
      "Ġë§Ŀ": 7892,
      "ê²½ê¸°": 7893,
      "Each": 7894,
      "ĠBritish": 7895,
      "Ġìĺ¤ìłĦ": 7896,
      "entication": 7897,
      "Ġfunc": 7898,
      "nchron": 7899,
      "Ġìľłëªħ": 7900,
      "Ġ[];": 7901,
      "arte": 7902,
      "Red": 7903,
      "Ġsea": 7904,
      ".__": 7905,
      "Active": 7906,
      "reater": 7907,
      "Ġforward": 7908,
      "lio": 7909,
      "ĠìĦ¤ê³Ħ": 7910,
      "ìĽ¨": 7911,
      "ĠBra": 7912,
      "Ġê¸°ì´Ī": 7913,
      "FT": 7914,
      "ĠDefault": 7915,
      "ëħĦëĮĢ": 7916,
      "ĠëıħìĿ¼": 7917,
      "Windows": 7918,
      "Ġhandler": 7919,
      "Ġë²Ĺ": 7920,
      "Ġì¡¸": 7921,
      "\"`": 7922,
      "Ġêµ¬ì²´": 7923,
      "gging": 7924,
      "ln": 7925,
      "[:": 7926,
      "ìĤ°ìĿĦ": 7927,
      "ĠMolecular": 7928,
      "ĠíķĻìĬµ": 7929,
      "Ġfunctions": 7930,
      "Network": 7931,
      "Ġva": 7932,
      "custom": 7933,
      "cates": 7934,
      "ĠëĤĻ": 7935,
      "ĊĊĊĊ": 7936,
      "ĠíĨµíķľ": 7937,
      "terms": 7938,
      "ë³´ëĭ¤ëĬĶ": 7939,
      "ìĽĲìĹĲìĦľ": 7940,
      "ĠêµĲìĪĺ": 7941,
      "ì¼ĵ": 7942,
      "NA": 7943,
      "Ġë°ĺìĺģ": 7944,
      "ê³¼ë¥¼": 7945,
      "MD": 7946,
      "km": 7947,
      "ĠíķĺëĤĺìĿĺ": 7948,
      "Ġensure": 7949,
      "Send": 7950,
      "Ġshape": 7951,
      "ë¦¬ì¦Ī": 7952,
      "ĠNe": 7953,
      "ĠíĿ¡": 7954,
      "esti": 7955,
      "Ġ%}": 7956,
      "rought": 7957,
      "Ġê²½íĸ¥": 7958,
      "coming": 7959,
      "Ġtreat": 7960,
      "(!": 7961,
      "ĠíĶĮëłĪìĿ´": 7962,
      "Ġê³¡": 7963,
      "aved": 7964,
      "python": 7965,
      "full": 7966,
      "ĠìĺģêµŃ": 7967,
      "Yes": 7968,
      "ì¡°ìĤ¬": 7969,
      "Ġwin": 7970,
      "Ġë¹¨": 7971,
      "Ġmatter": 7972,
      "Sure": 7973,
      "white": 7974,
      "Ġcorrespond": 7975,
      "arts": 7976,
      "íĺĳíļĮ": 7977,
      "Ġrights": 7978,
      "Ġtouch": 7979,
      "pg": 7980,
      "Ġê²°ê³¼ë¥¼": 7981,
      "Ġalbum": 7982,
      "Ġ300": 7983,
      "Ġtransform": 7984,
      "ciety": 7985,
      "Ġë§ĮìĹĲ": 7986,
      "Ġarri": 7987,
      "Ġì°¸ê°Ģ": 7988,
      "Ġìĸ¸ê¸ī": 7989,
      "ëª°": 7990,
      "ìłķìĹĲ": 7991,
      "idator": 7992,
      "era": 7993,
      "Ġdepend": 7994,
      "ì§Ģë¡ľ": 7995,
      "Ġfeature": 7996,
      "ĠInc": 7997,
      "={": 7998,
      "Ġgenerated": 7999,
      "ê°Ģê¸°": 8000,
      "ĠHere": 8001,
      "ĠMore": 8002,
      "illiam": 8003,
      "Ġê³¼ìłķìĹĲìĦľ": 8004,
      "ĠìłģìłĪ": 8005,
      "Ġplayed": 8006,
      "ĠìĿ¸íĦ°ëĦ·": 8007,
      "Ġchalle": 8008,
      "Ġfinally": 8009,
      "ĠKey": 8010,
      "ĠTa": 8011,
      "*)": 8012,
      "ario": 8013,
      "Ġhope": 8014,
      "íľ´": 8015,
      "email": 8016,
      "Ġshall": 8017,
      "JECT": 8018,
      "ĠìłľìķĪ": 8019,
      "sha": 8020,
      "ĠëĨĴìķĦ": 8021,
      "ification": 8022,
      "ĠìĿ¸ì²ľ": 8023,
      "SD": 8024,
      "Ġì§ķ": 8025,
      "ê·¸ëŁ¬ëĤĺ": 8026,
      "bsite": 8027,
      "ert": 8028,
      "ĠêµŃíļĮ": 8029,
      "Ġanti": 8030,
      "naged": 8031,
      "CHE": 8032,
      "Ġíĺĳëł¥": 8033,
      "rates": 8034,
      "ĠĊĠĠĠĠĠĠĠĠĠĠĠĠ": 8035,
      "cel": 8036,
      "ìłķìĿĺ": 8037,
      "ĠìĽĥ": 8038,
      "TEX": 8039,
      "Msg": 8040,
      "PA": 8041,
      "erred": 8042,
      "ĊĉĠĠĠĠĠĠĠĠĠĠ": 8043,
      "ìĥģìĿĢ": 8044,
      "Ġê²½ìļ°ê°Ģ": 8045,
      "ĠëĩĮ": 8046,
      "utf": 8047,
      "ëĬĶì§Ģ": 8048,
      "Ġê²ª": 8049,
      ";/": 8050,
      ")))": 8051,
      "Member": 8052,
      "Ġchemical": 8053,
      "72": 8054,
      "Ġng": 8055,
      "_->": 8056,
      "Ġnecessary": 8057,
      "rred": 8058,
      "Ġparts": 8059,
      "Ġëĵ±ë¡Ŀ": 8060,
      "Ġshown": 8061,
      "Inte": 8062,
      "ncing": 8063,
      "ĠPer": 8064,
      "300": 8065,
      "emo": 8066,
      "gative": 8067,
      "Ġtrack": 8068,
      "íĸĪìĬµëĭĪëĭ¤": 8069,
      "ĠFrench": 8070,
      "ĠíļĮìĤ¬": 8071,
      "Ġotherwise": 8072,
      "prop": 8073,
      "ê¸°ëĬ¥": 8074,
      "nia": 8075,
      "ĠíļĮë³µ": 8076,
      "sum": 8077,
      "Ġissue": 8078,
      "Ġâĸ²": 8079,
      "inger": 8080,
      "ìħ¨": 8081,
      "ĠìłĢìŀ¥": 8082,
      "tegy": 8083,
      "Security": 8084,
      "manager": 8085,
      "Any": 8086,
      "ĊĉĠĠĠĠĠĠĠĠĠĠĠ": 8087,
      "Ġrelease": 8088,
      "tests": 8089,
      "comment": 8090,
      "ëª¬": 8091,
      "letion": 8092,
      "Ġmonths": 8093,
      "ĠKe": 8094,
      "ë¦¬ì¹´": 8095,
      "Ġmoved": 8096,
      "TION": 8097,
      "holder": 8098,
      "]]": 8099,
      "ĠVAL": 8100,
      "save": 8101,
      ".<": 8102,
      "ĠVis": 8103,
      "íķĻìłģ": 8104,
      "ĠFalse": 8105,
      "ë¡Ńê²Į": 8106,
      "Channel": 8107,
      "(){": 8108,
      "ado": 8109,
      "NE": 8110,
      "\")]": 8111,
      "ĠìłĦíĨµ": 8112,
      "olver": 8113,
      "Ġê°Ģìł¸": 8114,
      "Ġopin": 8115,
      "ĠìĿ¸íķľ": 8116,
      "Ġroad": 8117,
      "emi": 8118,
      "Ġë§İëĭ¤": 8119,
      "Ġmount": 8120,
      "ìĹħìĿĦ": 8121,
      "ĠNO": 8122,
      "ROM": 8123,
      "ference": 8124,
      "ìĸ´ë¥¼": 8125,
      "ëĺĲíķľ": 8126,
      "orat": 8127,
      "íķ¨ìĿĦ": 8128,
      "ë¥¸ëĭ¤": 8129,
      "Ġê³µìĹ°": 8130,
      "Ġdefi": 8131,
      "ëŀĻ": 8132,
      "Ġeasy": 8133,
      "haps": 8134,
      "ê¸Īìľµ": 8135,
      "move": 8136,
      "ande": 8137,
      "Post": 8138,
      "Ġì¶ľìĹ°": 8139,
      "win": 8140,
      "Ġ{};": 8141,
      "ê³Ħíļį": 8142,
      "ĠìĪľê°Ħ": 8143,
      "rve": 8144,
      "Ġchannel": 8145,
      "ĠíĹĮ": 8146,
      "Ġjavax": 8147,
      "Ġpers": 8148,
      "hips": 8149,
      "ì©": 8150,
      "Ġslow": 8151,
      "Ġgroups": 8152,
      "ëĭ¬ëŁ¬": 8153,
      "controller": 8154,
      "ĠëķĮëĬĶ": 8155,
      "ì²´ìĿĺ": 8156,
      "lab": 8157,
      "ìĬ¤ëŁ½": 8158,
      "Ġì£¼ëĬĶ": 8159,
      "Ġea": 8160,
      "Account": 8161,
      "Ġê°ĢëĬ¥íķĺëĭ¤": 8162,
      "ĠìľĦíķ´ìĦľëĬĶ": 8163,
      "dropdown": 8164,
      "Selector": 8165,
      "íĻĶê°Ģ": 8166,
      "Ġì°¨ëŁī": 8167,
      "Ġeli": 8168,
      "Ġdro": 8169,
      "Ġëĭ¨ìĪľ": 8170,
      "views": 8171,
      "tip": 8172,
      "ë°ĶìĿ¼": 8173,
      "Ġorganization": 8174,
      "ì¹ĺê³ł": 8175,
      "Ġdead": 8176,
      "ë¦¬ìĻĢ": 8177,
      "Tri": 8178,
      "Ġembodi": 8179,
      "ĠìŀĲìĦ¸": 8180,
      "inh": 8181,
      "addr": 8182,
      "ĠCana": 8183,
      "ĠService": 8184,
      "ëł¤ê³ł": 8185,
      "Ġprogress": 8186,
      "Job": 8187,
      "ìĦľë¹ĦìĬ¤": 8188,
      "Ġreleased": 8189,
      "Ġë©Ģ": 8190,
      "Ġprobably": 8191,
      "Ġadmin": 8192,
      "Ġquite": 8193,
      "Ġled": 8194,
      "95": 8195,
      "Ġê°ģì¢ħ": 8196,
      "ĠëĶĶìŀĲìĿ¸": 8197,
      "rance": 8198,
      "Ġ\"\"": 8199,
      "nor": 8200,
      "Ġbottom": 8201,
      "ìłľëĬĶ": 8202,
      "Ġespe": 8203,
      "íĨµìĭł": 8204,
      "$(": 8205,
      "ì£¼ìĭľ": 8206,
      "tf": 8207,
      "ĠíĽĪ": 8208,
      "pendencies": 8209,
      "region": 8210,
      "Show": 8211,
      "////////////////////////////////": 8212,
      "Ġnet": 8213,
      "lled": 8214,
      "Ġuses": 8215,
      "pay": 8216,
      "Ġwhose": 8217,
      "ĠìłĦíĸĪëĭ¤": 8218,
      "Internal": 8219,
      "NG": 8220,
      "Ġsurface": 8221,
      "Ġê°ľëħĲ": 8222,
      "ĠCO": 8223,
      "peline": 8224,
      "rese": 8225,
      "ptember": 8226,
      "ëŀ«íı¼": 8227,
      "Dep": 8228,
      "ì»¬": 8229,
      "components": 8230,
      "íķ¨ìľ¼ë¡ľìį¨": 8231,
      "Ġappear": 8232,
      "rols": 8233,
      "ĠPi": 8234,
      "\">&": 8235,
      "êº¼": 8236,
      "ëł¬": 8237,
      "ìłķìĿĢ": 8238,
      "schema": 8239,
      "ilit": 8240,
      "ìĦŃ": 8241,
      "ìľ¨ìĿ´": 8242,
      "ĠOpen": 8243,
      "íķĺê²łëĭ¤": 8244,
      "ĠìĦłë³´": 8245,
      "Media": 8246,
      "git": 8247,
      "Ġgla": 8248,
      "Ġpati": 8249,
      "scroll": 8250,
      "ë¦¬ë¡ľ": 8251,
      "socia": 8252,
      "Ġtour": 8253,
      "Ġê·¸ë£¹": 8254,
      "Ġìļ°ë¦¬ê°Ģ": 8255,
      "merge": 8256,
      "BR": 8257,
      "@\"": 8258,
      "ìłľìĿĺ": 8259,
      "Ġê·¸ê°Ģ": 8260,
      "lush": 8261,
      "ì½ľ": 8262,
      "Ġ2005": 8263,
      "ĠãĢĮ": 8264,
      "ìŀĲìĹĲ": 8265,
      "serva": 8266,
      "ë±": 8267,
      "Ġíĸīë³µ": 8268,
      "ìĿ¼ìĹĲ": 8269,
      "normal": 8270,
      "Ġgat": 8271,
      "ĠColle": 8272,
      "Ġìĩ¼": 8273,
      "Sk": 8274,
      "Ġìĭłê²½": 8275,
      "Items": 8276,
      "ĠìĪĺìļĶ": 8277,
      "Ġerrors": 8278,
      "Float": 8279,
      "Ġseemed": 8280,
      "shape": 8281,
      "Ġì§Ģê¸ī": 8282,
      "nates": 8283,
      "ii": 8284,
      "Ġpush": 8285,
      "ìĭľíĤ¨": 8286,
      "lapse": 8287,
      "ĠHa": 8288,
      "ìŀĳìļ©": 8289,
      "Ġliving": 8290,
      "ë§¨": 8291,
      "Ġíı´": 8292,
      "Ġì§ĢëıĦ": 8293,
      "lyph": 8294,
      "ĠLea": 8295,
      "Ġëķħ": 8296,
      "ì°¨ìĽĲ": 8297,
      "Ġexpress": 8298,
      "fit": 8299,
      "tre": 8300,
      "ĠìĬĪ": 8301,
      "gies": 8302,
      "ĠíĬ¹ìłķ": 8303,
      "ĠìļĶìĨĮ": 8304,
      "pl": 8305,
      "Ġwide": 8306,
      "Ġlice": 8307,
      "TC": 8308,
      "ëĲĺë©´": 8309,
      "radius": 8310,
      "ĠConfig": 8311,
      "Ġëĭ´ëĭ¹": 8312,
      "Ġremember": 8313,
      "éĩ": 8314,
      "ë©´ìĹĲ": 8315,
      "ì³¤ëĭ¤": 8316,
      "nent": 8317,
      "ëŁ´": 8318,
      "rative": 8319,
      "ĠìĺĪë¥¼": 8320,
      "Ġpositive": 8321,
      "}.": 8322,
      "Support": 8323,
      "ìŀ¥ê³¼": 8324,
      "ĠOut": 8325,
      "LOG": 8326,
      "]:": 8327,
      "ometry": 8328,
      "Logger": 8329,
      "ëĲĺë©´ìĦľ": 8330,
      "Ġpolicy": 8331,
      "Flags": 8332,
      "Loader": 8333,
      "fill": 8334,
      "Ġëıħë¦½": 8335,
      "bile": 8336,
      "events": 8337,
      "Ġìĭłë¢°": 8338,
      "tro": 8339,
      "Ġëħ¸ëŀĺ": 8340,
      "Ani": 8341,
      "Ġê¸°íĥĢ": 8342,
      "ëŁŃ": 8343,
      "Ġìļ°ìĪĺ": 8344,
      ")'": 8345,
      "Initial": 8346,
      "Activity": 8347,
      "Ġëħ¼ìĿĺ": 8348,
      "Ġwee": 8349,
      "ĠNode": 8350,
      "ĊĠĠĠĠĉĠ": 8351,
      "Ġder": 8352,
      "mension": 8353,
      "pril": 8354,
      "íĻĶëĲľ": 8355,
      "Ġtool": 8356,
      "íĬ¸ìĽĮíģ¬": 8357,
      "MENT": 8358,
      "dict": 8359,
      "Runtime": 8360,
      "ĠGo": 8361,
      "UID": 8362,
      "nux": 8363,
      "Ġ(_": 8364,
      "assertEqual": 8365,
      "dist": 8366,
      "help": 8367,
      "Ġwallet": 8368,
      "íķĺê¸°ë¡ľ": 8369,
      "}{": 8370,
      "ĠìĹĲëĦĪì§Ģ": 8371,
      "Ġeffective": 8372,
      "ĠEl": 8373,
      "Ġìĥģíĺ¸": 8374,
      "Ġcoordi": 8375,
      "Ġclean": 8376,
      "Ġlibrary": 8377,
      "ì¥": 8378,
      "Ġìª½": 8379,
      "Ġimmediat": 8380,
      "ĠMarch": 8381,
      "El": 8382,
      "ìĸ´ìĦľ": 8383,
      "ctober": 8384,
      "->_": 8385,
      "yal": 8386,
      "íıīê°Ģ": 8387,
      "hic": 8388,
      "NotNull": 8389,
      "ë¦¿": 8390,
      "Bo": 8391,
      "íĸĪëĭ¤ëĬĶ": 8392,
      "erson": 8393,
      "ê³¼íķĻ": 8394,
      "Ġtele": 8395,
      "ĠJanuary": 8396,
      "Ġhor": 8397,
      "400": 8398,
      "ĊĠĠĠĠĉĠĠ": 8399,
      "ĠëĤĺíĥĢëĤĺ": 8400,
      "Iterator": 8401,
      "ëŀĲëĭ¤": 8402,
      "Ġë³´ìľł": 8403,
      "Ġgraph": 8404,
      "ê¸°ìĻĢ": 8405,
      "hes": 8406,
      "íĸĪìľ¼ë©°": 8407,
      "ĠTe": 8408,
      "Ġmorning": 8409,
      "ì°¬ê°Ģì§Ģ": 8410,
      "Ġstre": 8411,
      "Ġíķ´ëıĦ": 8412,
      "ĊĠĠĠĠĉĠĠĠ": 8413,
      "anc": 8414,
      "íĨ¤": 8415,
      "ìĵ°": 8416,
      "ĠĊĠĠĠĠĠĠĠĠĠĠĠĠĠ": 8417,
      "Ġplaye": 8418,
      "ĠAND": 8419,
      "Ġconse": 8420,
      "ìħĺìĿĦ": 8421,
      "Ġplayer": 8422,
      "ĠCounty": 8423,
      "ĠëŁ¬ìĭľìķĦ": 8424,
      "Ġdescribed": 8425,
      "Ġnatural": 8426,
      "íŀĪëł¤": 8427,
      "ango": 8428,
      "connection": 8429,
      "Ġrecommend": 8430,
      "zon": 8431,
      "PAR": 8432,
      "ĠìĿĮìĭĿ": 8433,
      "ì¤Ģëĭ¤": 8434,
      "ë¦ŃíĦ°": 8435,
      "ê²½ì°°": 8436,
      "Ġcharacters": 8437,
      "íĶĪ": 8438,
      "ĠRead": 8439,
      "initial": 8440,
      "ä½": 8441,
      "ìĹĲìĦł": 8442,
      "ĠWindow": 8443,
      "Ġìĭľê°ĦìĿ´": 8444,
      "ĠLondon": 8445,
      "ĠFig": 8446,
      "SIZE": 8447,
      "Ġim": 8448,
      "apply": 8449,
      "Ġëĭ¤ìļ´ë¡ľëĵľ": 8450,
      "Ġreach": 8451,
      "Ġíķ´ìĦĿ": 8452,
      "ARY": 8453,
      "ĠìľĦíķ´ìĦľ": 8454,
      "Ġê²ĢíĨł": 8455,
      "Init": 8456,
      "Ð°Ð": 8457,
      "Ġêµ¬ìĦ±ëĲĺìĸ´": 8458,
      "Ġoperator": 8459,
      "assertEquals": 8460,
      "peat": 8461,
      "Ġserial": 8462,
      "ods": 8463,
      "96": 8464,
      "Ġcomes": 8465,
      "throws": 8466,
      "Ġì½ĺíħĲì¸ł": 8467,
      "ĠBase": 8468,
      "Ġeffort": 8469,
      "++;": 8470,
      "primary": 8471,
      "ĠìĿ¼ìľ¼": 8472,
      "Ġcompos": 8473,
      "Bit": 8474,
      "MAX": 8475,
      "ĊĠĠĠĠĉĠĠĠĠ": 8476,
      "Ġdesign": 8477,
      "Ġprec": 8478,
      "important": 8479,
      "íĬ¹íŀĪ": 8480,
      "ê²©ìĿĦ": 8481,
      "Ġabsol": 8482,
      "Ġëı¼": 8483,
      "erc": 8484,
      "ĠCan": 8485,
      "ìĤ¬ë¡ľ": 8486,
      "Ġíĺģìĭł": 8487,
      "íı¬ì¸ł": 8488,
      "ĊĠĠĠĠĉĠĠĠĠĠ": 8489,
      "ì°¨ë¥¼": 8490,
      "Ġcases": 8491,
      "êµ¬ìĿĺ": 8492,
      "ĠHigh": 8493,
      "ĊĠĠĠĠĉĠĠĠĠĠĠ": 8494,
      "ĊĠĠĠĠĉĠĠĠĠĠĠĠ": 8495,
      "hu": 8496,
      "Ġarch": 8497,
      "Ġstack": 8498,
      "road": 8499,
      "rd": 8500,
      "76": 8501,
      "stats": 8502,
      "SQL": 8503,
      "Ġë°ĽëĬĶ": 8504,
      "Ġìŀ¥ì¹ĺ": 8505,
      "Ġìĸ´ëĶĶ": 8506,
      "Ġperformance": 8507,
      "ìĭľíĤ¬": 8508,
      "Files": 8509,
      "Ġê°Ŀ": 8510,
      "ĠíķĺëĤĺëĭĺ": 8511,
      "Ġsets": 8512,
      "Ġinflue": 8513,
      "ĊĠĠĠĠĉĠĠĠĠĠĠĠĠ": 8514,
      "ĠíĿ¥": 8515,
      "ĠJune": 8516,
      "ĠìĿµ": 8517,
      "VERSION": 8518,
      "Ġexisting": 8519,
      "Ġì£¼íĥĿ": 8520,
      "ĊĠĠĠĠĉĠĠĠĠĠĠĠĠĠ": 8521,
      "ndition": 8522,
      "ĊĠĠĠĠĉĠĠĠĠĠĠĠĠĠĠ": 8523,
      "ĠImp": 8524,
      "ĊĠĠĠĠĉĠĠĠĠĠĠĠĠĠĠĠ": 8525,
      "ëĶ°": 8526,
      "ĠĊĠĠĊ": 8527,
      "Ġenjoy": 8528,
      "Ġest": 8529,
      "Ġrese": 8530,
      "Ġë§Īì°¬ê°Ģì§Ģ": 8531,
      "reates": 8532,
      "Pattern": 8533,
      "ping": 8534,
      "======": 8535,
      "ì»¨": 8536,
      "ĊĠĠĠĠĉĠĠĠĠĠĠĠĠĠĠĠĠ": 8537,
      "ĊĠĠĠĠĉĠĠĠĠĠĠĠĠĠĠĠĠĠ": 8538,
      "ĊĠĠĠĠĉĠĠĠĠĠĠĠĠĠĠĠĠĠĠ": 8539,
      "ĊĠĠĠĠĉĠĠĠĠĠĠĠĠĠĠĠĠĠĠĠ": 8540,
      "Ġregard": 8541,
      "ĊĠĠĠĠĉĠĠĠĠĠĠĠĠĠĠĠĠĠĠĠĠ": 8542,
      "entity": 8543,
      "Ġìĸ¸ë¡ł": 8544,
      "ĠìľłìĿĺ": 8545,
      "=\"@": 8546,
      "()));": 8547,
      "ĠëĮĢíķ´ìĦľ": 8548,
      "------------": 8549,
      "flags": 8550,
      "ĠëĤ´ë¶Ģ": 8551,
      "ĠHouse": 8552,
      "Proxy": 8553,
      "Ġdep": 8554,
      "hri": 8555,
      "ķµ": 8556,
      "Ġcoming": 8557,
      ")));": 8558,
      "Ġthemselves": 8559,
      "ĠGoogle": 8560,
      "Ġrand": 8561,
      "PO": 8562,
      "valua": 8563,
      "Ġite": 8564,
      "ëĢ": 8565,
      "assets": 8566,
      "Ġwrong": 8567,
      "ĠíĶĦë¡ľìłĿ": 8568,
      "Ġstri": 8569,
      "Ġë¹Ľ": 8570,
      "ĠìĽ¹": 8571,
      "ĠFunction": 8572,
      "webpack": 8573,
      "ĠìķŀìĦľ": 8574,
      "anguage": 8575,
      "astic": 8576,
      "ê°ĦìĿĺ": 8577,
      "Ġattr": 8578,
      "Ġê°ĦìĿĺ": 8579,
      "ĠìĭľìłĪ": 8580,
      "Ġcommit": 8581,
      "CI": 8582,
      "Ġmass": 8583,
      "fr": 8584,
      "Ġstorage": 8585,
      "Ori": 8586,
      "dep": 8587,
      "ield": 8588,
      "Ġìķ½ë¬¼": 8589,
      "ĠIE": 8590,
      "Ġev": 8591,
      "ĠOth": 8592,
      "ĠëĤ®ìĿĢ": 8593,
      "ĠíĨµìĭł": 8594,
      "Ġëĥī": 8595,
      "Ġpul": 8596,
      "jquery": 8597,
      "ById": 8598,
      "missions": 8599,
      "Ġì£¼ëª©": 8600,
      "Directory": 8601,
      "ê²łëĭ¤ê³ł": 8602,
      "Ġë³´ëĤ´": 8603,
      "Ġprevent": 8604,
      "ĠìĪĺìĿµ": 8605,
      "Ġìłķë§Ĳ": 8606,
      "usion": 8607,
      "Ġtakes": 8608,
      "record": 8609,
      "orge": 8610,
      "Ġscreen": 8611,
      "ìĦ¸ëĮĢ": 8612,
      "Ġì§ģìĽĲ": 8613,
      "################": 8614,
      "short": 8615,
      "ĠëĮĢë¶Ģë¶ĦìĿĺ": 8616,
      "ĠëĦĵ": 8617,
      "ë³µì§Ģ": 8618,
      "Ã§": 8619,
      "ĠSchool": 8620,
      "ìĸ´ìķ¼": 8621,
      "ì£¼íĥĿ": 8622,
      "Ġíĳľìĭľ": 8623,
      "Ġvol": 8624,
      "FILE": 8625,
      "Ġë¶ĦìľĦ": 8626,
      "gged": 8627,
      "ê·ľëª¨": 8628,
      "ĠìĨĮíĶĦíĬ¸": 8629,
      "ĠìĺģìĹħ": 8630,
      "ero": 8631,
      "Func": 8632,
      "ìļ´ëĵľ": 8633,
      "force": 8634,
      "ĠIns": 8635,
      "ncil": 8636,
      "Ġfund": 8637,
      "Ġok": 8638,
      "ĠJapan": 8639,
      "Ġë°ĺëĮĢ": 8640,
      "tu": 8641,
      "Ġfit": 8642,
      "Ġtermi": 8643,
      "security": 8644,
      "Ġfun": 8645,
      "Ġ45": 8646,
      "Ġcontact": 8647,
      "elling": 8648,
      "mol": 8649,
      "Ġpattern": 8650,
      "handler": 8651,
      "band": 8652,
      "ä¹": 8653,
      "¬ìĺģ": 8654,
      "site": 8655,
      ")\"": 8656,
      "ĠìĤ¬ìĭ¤ìĿĦ": 8657,
      "Ġìłľê¸°": 8658,
      "ĠAfri": 8659,
      "Ġêµ¬ë¶Ħ": 8660,
      "=\"\"": 8661,
      "ë²Īíĺ¸": 8662,
      "mu": 8663,
      "Ġbrot": 8664,
      "ĠìľłìĤ¬": 8665,
      "Results": 8666,
      "êµ¬ìĹŃ": 8667,
      "Ġdie": 8668,
      "dia": 8669,
      "rist": 8670,
      "Ġoccur": 8671,
      "zing": 8672,
      "ĊĊĠĠĠĠĠĠĠĠĠĠĠĠĠĠĠĠĠĠĠĠ": 8673,
      "ê±°ëŀĺ": 8674,
      "DA": 8675,
      "Ġìĺģìĥģ": 8676,
      "Ġshows": 8677,
      "98": 8678,
      "ĠAugust": 8679,
      "ë³´ëĬĶ": 8680,
      "ĠëĮĢíķľë¯¼êµŃ": 8681,
      "bytes": 8682,
      "ëĭĪìķĦ": 8683,
      "rel": 8684,
      "edi": 8685,
      "ADD": 8686,
      "ease": 8687,
      "TABLE": 8688,
      "Sa": 8689,
      "Ģëĭ¤": 8690,
      "Ġexact": 8691,
      "ìķĪìłĦ": 8692,
      "$$": 8693,
      "ìī¬": 8694,
      "Ġready": 8695,
      "Ġbroth": 8696,
      "ilters": 8697,
      "Ġsecurity": 8698,
      "Ġstudents": 8699,
      "gation": 8700,
      "Ġë§Ĳíķľëĭ¤": 8701,
      "rase": 8702,
      "Ġregular": 8703,
      "Ġach": 8704,
      "Ġìŀĥ": 8705,
      "ĠAI": 8706,
      "ĠìĪĺê°Ģ": 8707,
      "del": 8708,
      "LS": 8709,
      "Ġring": 8710,
      "Ġhear": 8711,
      "selected": 8712,
      "','": 8713,
      "Ġë°Ķíĥķ": 8714,
      "TV": 8715,
      "Net": 8716,
      "Ġcra": 8717,
      "ĠPres": 8718,
      "Pool": 8719,
      "ĠìĦľë¹ĦìĬ¤ë¥¼": 8720,
      "()).": 8721,
      "Ġâĳ": 8722,
      "Plugin": 8723,
      "Java": 8724,
      "Perm": 8725,
      "ëĤ¨ëıĦ": 8726,
      "Ġsugg": 8727,
      "dec": 8728,
      "aging": 8729,
      "Ġpopular": 8730,
      "Editor": 8731,
      "ĠSha": 8732,
      "Attributes": 8733,
      "Ġrate": 8734,
      "|--|--|--|--": 8735,
      "Ġparty": 8736,
      "ĠëĮĢì²´": 8737,
      "Ġblue": 8738,
      "arks": 8739,
      "Ġleg": 8740,
      "cb": 8741,
      "IB": 8742,
      "Ġê³µìľł": 8743,
      "loyment": 8744,
      "Now": 8745,
      "Ġtests": 8746,
      "vant": 8747,
      "via": 8748,
      "real": 8749,
      "Ġterms": 8750,
      "Î±": 8751,
      "ëĬĲëĥĲ": 8752,
      "Ġê²ĢìĤ¬": 8753,
      "íĪ¬ìŀĲ": 8754,
      "Ġtalk": 8755,
      "iv": 8756,
      "Ġê²°íĺ¼": 8757,
      ")\">": 8758,
      "PORT": 8759,
      "ĠìĬµ": 8760,
      "nging": 8761,
      "ĠII": 8762,
      "ê³łë¥¼": 8763,
      "ĊĊĉĉĉĉ": 8764,
      "GS": 8765,
      "Bi": 8766,
      "Ġcomplex": 8767,
      "Ġìļķ": 8768,
      "ìľĦëĬĶ": 8769,
      "ĠJuly": 8770,
      "ection": 8771,
      "Ġà": 8772,
      "Ġask": 8773,
      "Ġcurrently": 8774,
      "ĠìĿ´ìļ©íķĺìĹ¬": 8775,
      "super": 8776,
      "Ġë³´ìĺĢëĭ¤": 8777,
      "Ġìĺ¤íŀĪëł¤": 8778,
      "ĠëĤĺìĦľ": 8779,
      "ëĵľìĭľ": 8780,
      "Ġvio": 8781,
      "ì¹¼": 8782,
      "ĠìĺĪìĪł": 8783,
      "Ġfn": 8784,
      "Ġìĸĺ": 8785,
      "Events": 8786,
      "Ġìĭľê°ĦìĿĦ": 8787,
      "73": 8788,
      "Ti": 8789,
      "Grid": 8790,
      "ĠĊĠĠĠĠĠĠĠĠĠĠĠĠĠĠ": 8791,
      "ugh": 8792,
      "ĠReturn": 8793,
      "Ġë¶Ģìłķ": 8794,
      "They": 8795,
      "Ġformed": 8796,
      "nance": 8797,
      "elated": 8798,
      "Ġbrought": 8799,
      "ĠìĿ¸ìĤ¬": 8800,
      "íĵ¨íĦ°": 8801,
      "Ġimprove": 8802,
      "âĦ": 8803,
      "Ġtem": 8804,
      "Ins": 8805,
      "uary": 8806,
      "Sp": 8807,
      "Ġë§¥": 8808,
      "Ljava": 8809,
      "åį": 8810,
      "Adapter": 8811,
      "Ġband": 8812,
      "Ġì§Ħì¶ľ": 8813,
      "ĠìºĲë¦ŃíĦ°": 8814,
      "ĠìĤ¬ëĿ¼": 8815,
      ",âĢĿ": 8816,
      "master": 8817,
      "Ġusers": 8818,
      "Ġconsidered": 8819,
      "ĠAc": 8820,
      "nie": 8821,
      "Ġëħ¼ëŀĢ": 8822,
      "Ġìī¬": 8823,
      "Ġë§Įì¡±": 8824,
      "Ġì´Īê¸°": 8825,
      "ĠìĿ´ë¯¸ì§Ģ": 8826,
      "ĊĠĠĠĠĠĠĠĠĠĠĠĠĊĠĠĠĠĠĠĠĠĠĠĠĠĠĠĠ": 8827,
      "points": 8828,
      ">:": 8829,
      "ë§ĮìĿĦ": 8830,
      "Ġterm": 8831,
      "Ġcomment": 8832,
      "Ġstrict": 8833,
      "_(": 8834,
      "ilitary": 8835,
      "utt": 8836,
      "Ġaddition": 8837,
      "ĠìĪĺìĥģ": 8838,
      "properties": 8839,
      "74": 8840,
      "Ġìĭ¤íĸī": 8841,
      "íķ´ì£¼": 8842,
      "ĠìĽĮ": 8843,
      "ĠQu": 8844,
      "2015": 8845,
      "ngle": 8846,
      "ìĽĲìľ¼ë¡ľ": 8847,
      "Ġëª¨ìĸĳ": 8848,
      "based": 8849,
      "Ġespecially": 8850,
      "ĠìķĦíĮĮíĬ¸": 8851,
      "ferred": 8852,
      "Ġcouldn": 8853,
      "reset": 8854,
      "GB": 8855,
      "condition": 8856,
      "ë½": 8857,
      "tine": 8858,
      "chang": 8859,
      "Ġproper": 8860,
      "Ġpercent": 8861,
      "ĠDav": 8862,
      "ì¤ĳìķĻ": 8863,
      "related": 8864,
      "Ġnational": 8865,
      "Ġsal": 8866,
      "ĠSeptember": 8867,
      "ë¦¬ê·¸": 8868,
      "Ġintrodu": 8869,
      "ĠHo": 8870,
      "rele": 8871,
      "Ġíļ¨ìľ¨": 8872,
      "ìľĦê°Ģ": 8873,
      "Ġattributes": 8874,
      "ĠìŀĲì£¼": 8875,
      "Ġways": 8876,
      "iterator": 8877,
      "ĠTODO": 8878,
      "browser": 8879,
      "Parse": 8880,
      "Ġexec": 8881,
      "Non": 8882,
      "Ġ{'": 8883,
      "Step": 8884,
      "Ġeducation": 8885,
      "Arg": 8886,
      "Ġìŀ¥ê¸°": 8887,
      "Generic": 8888,
      "Ġìĸ´ëł¤ìļ´": 8889,
      "BUG": 8890,
      "nta": 8891,
      "Ġtypeof": 8892,
      "pare": 8893,
      "Ġago": 8894,
      "nufact": 8895,
      "tile": 8896,
      "ĠëĶ¸": 8897,
      "ìĤ¬íķŃ": 8898,
      "Ġbtn": 8899,
      "Ġë°ĶëĢ": 8900,
      "Ġappend": 8901,
      "ìļ°ìĬ¤": 8902,
      "ĠìĹ¬ìłĦíŀĪ": 8903,
      "phone": 8904,
      "Pointer": 8905,
      "ĠText": 8906,
      "Ġnodes": 8907,
      "ĠìĪł": 8908,
      "vey": 8909,
      "hanks": 8910,
      "inde": 8911,
      "Ġaff": 8912,
      "aiting": 8913,
      "ĠPat": 8914,
      "tags": 8915,
      "íķµ": 8916,
      "ĠOption": 8917,
      "ĠìĤ¬ìļ©íķĺëĬĶ": 8918,
      "cheme": 8919,
      "81": 8920,
      "Ġê´Ģëł¨ëĲľ": 8921,
      "ĠìĺĪë°©": 8922,
      "Ġconditions": 8923,
      "Ġwish": 8924,
      "Anno": 8925,
      "PATH": 8926,
      "Ġmarket": 8927,
      "cember": 8928,
      "metadata": 8929,
      "Ġdirectly": 8930,
      "ooks": 8931,
      "rine": 8932,
      "Ġshare": 8933,
      "Ġê½ĥ": 8934,
      "Ġhit": 8935,
      "ought": 8936,
      "Ġê°ķëł¥": 8937,
      "Ġtried": 8938,
      "'])": 8939,
      "echo": 8940,
      "Ġê°ķì¡°íĸĪëĭ¤": 8941,
      "ovember": 8942,
      "Memory": 8943,
      "Ġinvention": 8944,
      "ĠìłĦìĭľ": 8945,
      "ëªħìĿĢ": 8946,
      "Ġissues": 8947,
      "DC": 8948,
      "Ġgirl": 8949,
      "ĊĊĠĠĠĠĠĠĠĠĠĠĠĠĠĠĠĠĠĠĠĠĠ": 8950,
      "Ġvers": 8951,
      "Ġdefine": 8952,
      "Ġprogra": 8953,
      "%),": 8954,
      "Keys": 8955,
      "ë§ĮìĿĺ": 8956,
      "Ġë°ĽìĿĦ": 8957,
      "ĠìĤ¬ìļ©íķł": 8958,
      "mated": 8959,
      "eathe": 8960,
      "Ġprofession": 8961,
      "ë¨¹": 8962,
      "ĠSp": 8963,
      "ìķĦê°Ģ": 8964,
      "Ġìŀĳìļ©": 8965,
      "Ġ2004": 8966,
      "Ġstandard": 8967,
      "Ġvilla": 8968,
      "Ġmock": 8969,
      "Panel": 8970,
      "Ġê³Ħìķ½": 8971,
      "ullable": 8972,
      "mount": 8973,
      "ĠìĤ¬ë¬´": 8974,
      "ji": 8975,
      "Matrix": 8976,
      "aset": 8977,
      "Ġimplementation": 8978,
      "Ġìļ°ë¦¬ëĤĺëĿ¼": 8979,
      "osp": 8980,
      "paces": 8981,
      "Ġìłľìĸ´": 8982,
      "ìĿ¼ìĿĦ": 8983,
      "êµ°ìĿĺ": 8984,
      "Ġlocated": 8985,
      "Ġë°°ì¹ĺ": 8986,
      "Ġì¢ħíķ©": 8987,
      "íĬľ": 8988,
      "IV": 8989,
      "ĠAN": 8990,
      "Ġëĭ¬ëĿ¼": 8991,
      "lier": 8992,
      "Ġbuilder": 8993,
      "Ġmaint": 8994,
      "Ġëª©ìĨĮ": 8995,
      "Ġreq": 8996,
      "XML": 8997,
      "chan": 8998,
      "ĠëįĶë¶Īìĸ´": 8999,
      "Ġmyself": 9000,
      "ĠíĶĮëŀ«íı¼": 9001,
      "Ġê°Ģìŀħ": 9002,
      "Close": 9003,
      "Elements": 9004,
      "Ġcentury": 9005,
      "Ġwife": 9006,
      "Ġsmo": 9007,
      "ĠApril": 9008,
      "area": 9009,
      "Ġsimply": 9010,
      "íĭ¸": 9011,
      "Ġnote": 9012,
      "íķĻê³¼": 9013,
      "ìłģìĿ´": 9014,
      "ĠOctober": 9015,
      "Ġê¹Ĭ": 9016,
      "profile": 9017,
      "ising": 9018,
      "ë¡¯ëį°": 9019,
      "Ġpointer": 9020,
      "Ġì²¨": 9021,
      "ì¦ĿìĿĦ": 9022,
      "gers": 9023,
      "Ġìºł": 9024,
      "ĠìĪĺëĬĶ": 9025,
      "ëĭ¨ê³Ħ": 9026,
      "Ġê³łìļ©": 9027,
      "ĠOpe": 9028,
      "ê¸Īì§Ģ": 9029,
      "Ġreplace": 9030,
      "LECT": 9031,
      "ë¯¸êµŃ": 9032,
      "ĠMethod": 9033,
      "ĠêµĲíĨµ": 9034,
      "ê°ĢìĿĺ": 9035,
      "ãħ": 9036,
      "íķĺê³łìŀĲ": 9037,
      "íĶĮëłĪìĿ´": 9038,
      "Ġremoved": 9039,
      "Ġhair": 9040,
      "æĺ": 9041,
      "Ġmiddle": 9042,
      "ĠëĤ´ìļ©ìĿĦ": 9043,
      "LIC": 9044,
      "ollow": 9045,
      "hus": 9046,
      "ìĬ´": 9047,
      "ToString": 9048,
      "Ġreading": 9049,
      "}</": 9050,
      "Ġcalls": 9051,
      "ķĢ": 9052,
      "rifi": 9053,
      "Symfony": 9054,
      "Lock": 9055,
      "ĠBO": 9056,
      "Ġseems": 9057,
      "Ġfeet": 9058,
      "Ġ${": 9059,
      "íķĢ": 9060,
      "attle": 9061,
      "Ġ36": 9062,
      "SK": 9063,
      "ìĿ´ìĿĺ": 9064,
      "ram": 9065,
      "phy": 9066,
      "160": 9067,
      "Ġopened": 9068,
      "ìĹĪê³ł": 9069,
      "ĊĉĉĠĠ": 9070,
      "ĠëĭĪ": 9071,
      "Ġìłľê±°": 9072,
      "kens": 9073,
      "Ġcup": 9074,
      "Ġasync": 9075,
      "æĿ": 9076,
      "êµŃë¯¼": 9077,
      "ĠìĹ°ìĨį": 9078,
      "ìĭľìĿĺ": 9079,
      "2017": 9080,
      "[(": 9081,
      "ê°ľë¥¼": 9082,
      "Ġicon": 9083,
      "êµ¬ê°Ģ": 9084,
      "Ġapply": 9085,
      "Ġdistance": 9086,
      "ĠíĻķìĤ°": 9087,
      "ê·¸ëĬĶ": 9088,
      "llegal": 9089,
      "Before": 9090,
      "ëĭ¨ìĿĦ": 9091,
      "Convert": 9092,
      "ëĮĢëĬĶ": 9093,
      "vlet": 9094,
      "Ġcells": 9095,
      "Ġintera": 9096,
      "Ass": 9097,
      "keyword": 9098,
      "Ġur": 9099,
      "ONE": 9100,
      "Enum": 9101,
      "^{": 9102,
      "mor": 9103,
      "nim": 9104,
      "ĠíķĦìļĶê°Ģ": 9105,
      "ĠSK": 9106,
      "eather": 9107,
      "stop": 9108,
      "undred": 9109,
      "ĠJava": 9110,
      "network": 9111,
      "ĠìĺĪì¸¡": 9112,
      "ìĽħ": 9113,
      "trigger": 9114,
      "Ġpublished": 9115,
      "Ġìĸ´ë¨¸ëĭĪ": 9116,
      "Ġsignificant": 9117,
      "Ġclosed": 9118,
      "ĠAustral": 9119,
      "Ġfir": 9120,
      "ë¦¼íĶ½": 9121,
      "Car": 9122,
      "ìĭĿìĿ´": 9123,
      "Ġì²ŃëħĦ": 9124,
      "íĬ¼": 9125,
      "Ġmillion": 9126,
      "ë³Ħë¡ľ": 9127,
      "=\"\">": 9128,
      "parser": 9129,
      "ĊĊĠĠĠĠĠĠĠĠĠĠĠĠĠĠĠĠĠĠĠĠĠĠ": 9130,
      "desc": 9131,
      "east": 9132,
      "Ġisn": 9133,
      "Custom": 9134,
      "Ġfreque": 9135,
      "71": 9136,
      "Ġlikely": 9137,
      "Ġì½ľ": 9138,
      "nity": 9139,
      "Ġì¤ĳìĿ¸": 9140,
      "ĠìĿ´ë²¤": 9141,
      "Rest": 9142,
      "FC": 9143,
      "Ġhab": 9144,
      "Ġë¬»": 9145,
      "ĊĉĉĊĉ": 9146,
      "83": 9147,
      "look": 9148,
      "Ġcalcu": 9149,
      "ights": 9150,
      "ìŀĲë¦¬": 9151,
      "Ġstation": 9152,
      "pret": 9153,
      "ë³´ë©´": 9154,
      "ìĦ¸ê¸°": 9155,
      "UTF": 9156,
      "ĠíĻķì§Ħ": 9157,
      "ĠìĤ¬íķŃ": 9158,
      "Ġcontaining": 9159,
      "RAN": 9160,
      "Ġ2022": 9161,
      "ìĭ¸": 9162,
      "Ġconstant": 9163,
      "rote": 9164,
      "Ġtraining": 9165,
      "Ġì°¬": 9166,
      "Laye": 9167,
      "artment": 9168,
      "ĠĊĠĠĠĠĠĠĠĠĠĠĠĠĠĠĠ": 9169,
      "Ġpoly": 9170,
      "Ġé": 9171,
      "ĠRuss": 9172,
      "ĊĊĠĠĠĠĠĠĠĠĠĠĠĠĠĠĠĠĠĠĠĠĠĠĠ": 9173,
      "Ġupper": 9174,
      "Ġì°¸ì¡°": 9175,
      "Ġíĳ¸": 9176,
      "Ġëª»íķĺê³ł": 9177,
      "nx": 9178,
      "ĠVersion": 9179,
      "hidden": 9180,
      "ë¹ł": 9181,
      "Layer": 9182,
      "ĠìĦ±ëĬ¥": 9183,
      "prefix": 9184,
      "ë²Īì§¸": 9185,
      "ĠíĺĲìĿĺ": 9186,
      "ffff": 9187,
      "Ġìĭłíĺ¸": 9188,
      "product": 9189,
      "Ġìĭ¤ìłľë¡ľ": 9190,
      "ality": 9191,
      "cting": 9192,
      "Ġìĸ¸ìłľ": 9193,
      "ìĭľìĺ¤": 9194,
      "Ġë¶Ħëªħ": 9195,
      "rai": 9196,
      "íĳ¸": 9197,
      "Ġê·¼ê±°": 9198,
      "ĠíĨµíķ´ìĦľ": 9199,
      "Ġsign": 9200,
      "Ġsequence": 9201,
      "titution": 9202,
      "2016": 9203,
      "¾Į": 9204,
      "thri": 9205,
      "ĠíĶĦë¦¬": 9206,
      "aws": 9207,
      "Ġì§ĢëĤľëĭ¬": 9208,
      "íĬ¸ë¡ľ": 9209,
      "ëĭĪìĬ¤": 9210,
      "note": 9211,
      "Ġentity": 9212,
      "ĠSco": 9213,
      "gorithm": 9214,
      "known": 9215,
      "Ġinh": 9216,
      "íĭ±": 9217,
      "IST": 9218,
      "weet": 9219,
      "elle": 9220,
      ".\");": 9221,
      ".(": 9222,
      "ìłĦë¬¸": 9223,
      "Ġscene": 9224,
      "Ġìļ°ìĬ¹": 9225,
      "Ġpie": 9226,
      "ĠëĤĺëĪ": 9227,
      "Are": 9228,
      "Ġê±°ì³Ĳ": 9229,
      "Ġalte": 9230,
      "cts": 9231,
      "ĠìķĦë¦Ħ": 9232,
      "words": 9233,
      "ĠWilliam": 9234,
      "Ġíķĺê¸°": 9235,
      "kw": 9236,
      "ĠëĮĢíķ´ìĦľëĬĶ": 9237,
      "ë©´ìĿĦ": 9238,
      "ĠìłĦíĺĢ": 9239,
      "NULL": 9240,
      "rns": 9241,
      "which": 9242,
      "Ġhistor": 9243,
      "logger": 9244,
      "Ġsex": 9245,
      "ĠìłĦìŀ¬": 9246,
      "prec": 9247,
      "ë§ĮìĿ´": 9248,
      "íĻľëıĻ": 9249,
      "å°": 9250,
      "ĠìķĦì£¼": 9251,
      "Ġini": 9252,
      "STAT": 9253,
      "Ġê¸°íļį": 9254,
      "Symbol": 9255,
      "ĠjQuery": 9256,
      "ein": 9257,
      "ĠëĲĺë©´": 9258,
      "Ġproduction": 9259,
      "ĠìĿ´ìĻĢ": 9260,
      "Ġopport": 9261,
      "configuration": 9262,
      "Ġìŀĺëª»": 9263,
      "services": 9264,
      "Ġì£¼ìĿ¸": 9265,
      "total": 9266,
      "Ġblood": 9267,
      "ëĵľë¡ľ": 9268,
      "hous": 9269,
      "ĠëĬ¥ëł¥": 9270,
      "SER": 9271,
      "ĠìĹĺ": 9272,
      "props": 9273,
      "TA": 9274,
      "Ġcand": 9275,
      "cause": 9276,
      "bad": 9277,
      "JS": 9278,
      "ëĿ¼ìļ°": 9279,
      "Ġnumbers": 9280,
      "ĠAR": 9281,
      "Ġìľłíĺķ": 9282,
      "ìŀ¥ìľ¼ë¡ľ": 9283,
      "tters": 9284,
      "íķĺëĤĺ": 9285,
      "Ġlos": 9286,
      "ë»": 9287,
      "ĠNote": 9288,
      "Ġê±´ì¶ķ": 9289,
      "Ġfeed": 9290,
      "external": 9291,
      "Ġworked": 9292,
      "ĠOthe": 9293,
      "ìĭľìĬ¤íħľ": 9294,
      "![": 9295,
      "Ġdied": 9296,
      "ĠOther": 9297,
      "domain": 9298,
      "ãİ¡": 9299,
      "ĠDescription": 9300,
      "ĠëĤĺê°Ģ": 9301,
      "Ġloss": 9302,
      "[$": 9303,
      "Ġperfect": 9304,
      "ncial": 9305,
      "Ġíŀĺëĵ¤": 9306,
      "Ġtoward": 9307,
      "Ġimplements": 9308,
      "Expr": 9309,
      "Ġìĸ¼ë§ĪëĤĺ": 9310,
      "Ġachie": 9311,
      "verage": 9312,
      "ĠëĬĲëģ¼": 9313,
      "ìļ°ëĬĶ": 9314,
      "íļĮëĬĶ": 9315,
      "anies": 9316,
      "íļĮìĤ¬": 9317,
      "Ġë°ĺë³µ": 9318,
      "ãĢī": 9319,
[...]
